/*
 * Autogenerated from eog_1dcnn_int8_vela.tflite. Do not edit by hand.
 */

#include "Model.hpp"
#include "BufAttributes.hpp"

namespace arm {
namespace app {
namespace nn {

static const uint8_t nn_model[] MODEL_TFLITE_ATTRIBUTE =
{
    0x20, 0x00, 0x00, 0x00, 0x54, 0x46, 0x4c, 0x33, 0x00, 0x00, 0x00, 0x00, 0x00, 0x00, 0x12, 0x00,
    0x1c, 0x00, 0x04, 0x00, 0x08, 0x00, 0x0c, 0x00, 0x10, 0x00, 0x14, 0x00, 0x00, 0x00, 0x18, 0x00,
    0x12, 0x00, 0x00, 0x00, 0x03, 0x00, 0x00, 0x00, 0x5c, 0x00, 0x00, 0x00, 0x50, 0x00, 0x00, 0x00,
    0x38, 0x00, 0x00, 0x00, 0x18, 0x00, 0x00, 0x00, 0x04, 0x00, 0x00, 0x00, 0x03, 0x00, 0x00, 0x00,
    0x3c, 0x01, 0x00, 0x00, 0xa0, 0x00, 0x00, 0x00, 0x44, 0x00, 0x00, 0x00, 0x06, 0x00, 0x00, 0x00,
    0x1c, 0x52, 0x00, 0x00, 0xa0, 0x42, 0x00, 0x00, 0x2c, 0x04, 0x00, 0x00, 0x44, 0x01, 0x00, 0x00,
    0xa8, 0x00, 0x00, 0x00, 0x50, 0x00, 0x00, 0x00, 0x0e, 0x00, 0x00, 0x00, 0x56, 0x65, 0x6c, 0x61,
    0x20, 0x4f, 0x70, 0x74, 0x69, 0x6d, 0x69, 0x73, 0x65, 0x64, 0x00, 0x00, 0x01, 0x00, 0x00, 0x00,
    0x4c, 0x01, 0x00, 0x00, 0x01, 0x00, 0x00, 0x00, 0xe0, 0x03, 0x00, 0x00, 0x18, 0xff, 0xff, 0xff,
    0x08, 0x00, 0x00, 0x00, 0x05, 0x00, 0x00, 0x00, 0x17, 0x00, 0x00, 0x00, 0x4f, 0x66, 0x66, 0x6c,
    0x69, 0x6e, 0x65, 0x4d, 0x65, 0x6d, 0x6f, 0x72, 0x79, 0x41, 0x6c, 0x6c, 0x6f, 0x63, 0x61, 0x74,
    0x69, 0x6f, 0x6e, 0x00, 0xc6, 0xbd, 0xff, 0xff, 0x04, 0x00, 0x00, 0x00, 0x20, 0x00, 0x00, 0x00,
    0x00, 0x00, 0x00, 0x00, 0x01, 0x00, 0x00, 0x00, 0x05, 0x00, 0x00, 0x00, 0xff, 0xff, 0xff, 0xff,
    0xff, 0xff, 0xff, 0xff, 0x00, 0x00, 0x00, 0x00, 0x00, 0x10, 0x00, 0x00, 0x00, 0x00, 0x00, 0x00,
    0x00, 0x00, 0x00, 0x00, 0x70, 0xff, 0xff, 0xff, 0x08, 0x00, 0x00, 0x00, 0x04, 0x00, 0x00, 0x00,
    0x13, 0x00, 0x00, 0x00, 0x43, 0x4f, 0x4e, 0x56, 0x45, 0x52, 0x53, 0x49, 0x4f, 0x4e, 0x5f, 0x4d,
    0x45, 0x54, 0x41, 0x44, 0x41, 0x54, 0x41, 0x00, 0x1a, 0xbe, 0xff, 0xff, 0x04, 0x00, 0x00, 0x00,
    0x60, 0x00, 0x00, 0x00, 0x0c, 0x00, 0x00, 0x00, 0x08, 0x00, 0x0e, 0x00, 0x08, 0x00, 0x04, 0x00,
    0x08, 0x00, 0x00, 0x00, 0x10, 0x00, 0x00, 0x00, 0x28, 0x00, 0x00, 0x00, 0x00, 0x00, 0x06, 0x00,
    0x08, 0x00, 0x04, 0x00, 0x06, 0x00, 0x00, 0x00, 0x04, 0x00, 0x00, 0x00, 0x01, 0x00, 0x00, 0x00,
    0xeb, 0x03, 0x00, 0x00, 0x0c, 0x00, 0x18, 0x00, 0x14, 0x00, 0x10, 0x00, 0x0c, 0x00, 0x04, 0x00,
    0x0c, 0x00, 0x00, 0x00, 0x19, 0xcc, 0xfa, 0x14, 0x14, 0xc5, 0x18, 0x56, 0x02, 0x00, 0x00, 0x00,
    0x02, 0x00, 0x00, 0x00, 0x04, 0x00, 0x00, 0x00, 0x06, 0x00, 0x00, 0x00, 0x32, 0x2e, 0x32, 0x31,
    0x2e, 0x30, 0x00, 0x00, 0x08, 0x00, 0x0c, 0x00, 0x04, 0x00, 0x08, 0x00, 0x08, 0x00, 0x00, 0x00,
    0x08, 0x00, 0x00, 0x00, 0x03, 0x00, 0x00, 0x00, 0x13, 0x00, 0x00, 0x00, 0x6d, 0x69, 0x6e, 0x5f,
    0x72, 0x75, 0x6e, 0x74, 0x69, 0x6d, 0x65, 0x5f, 0x76, 0x65, 0x72, 0x73, 0x69, 0x6f, 0x6e, 0x00,
    0xb2, 0xbe, 0xff, 0xff, 0x04, 0x00, 0x00, 0x00, 0x10, 0x00, 0x00, 0x00, 0x31, 0x2e, 0x31, 0x34,
    0x2e, 0x30, 0x00, 0x00, 0x00, 0x00, 0x00, 0x00, 0x00, 0x00, 0x00, 0x00, 0x00, 0x00, 0x0e, 0x00,
    0x18, 0x00, 0x04, 0x00, 0x08, 0x00, 0x0c, 0x00, 0x10, 0x00, 0x14, 0x00, 0x0e, 0x00, 0x00, 0x00,
    0x38, 0x00, 0x00, 0x00, 0x2c, 0x00, 0x00, 0x00, 0x20, 0x00, 0x00, 0x00, 0x14, 0x00, 0x00, 0x00,
    0x04, 0x00, 0x00, 0x00, 0x04, 0x00, 0x00, 0x00, 0x6d, 0x61, 0x69, 0x6e, 0x00, 0x00, 0x00, 0x00,
    0x01, 0x00, 0x00, 0x00, 0x3c, 0x00, 0x00, 0x00, 0x01, 0x00, 0x00, 0x00, 0x04, 0x00, 0x00, 0x00,
    0x01, 0x00, 0x00, 0x00, 0x03, 0x00, 0x00, 0x00, 0x05, 0x00, 0x00, 0x00, 0x10, 0x02, 0x00, 0x00,
    0xc0, 0x01, 0x00, 0x00, 0x90, 0x01, 0x00, 0x00, 0xe0, 0x00, 0x00, 0x00, 0x4c, 0x00, 0x00, 0x00,
    0x10, 0x00, 0x10, 0x00, 0x00, 0x00, 0x04, 0x00, 0x08, 0x00, 0x00, 0x00, 0x00, 0x00, 0x0c, 0x00,
    0x10, 0x00, 0x00, 0x00, 0x14, 0x00, 0x00, 0x00, 0x08, 0x00, 0x00, 0x00, 0x24, 0x00, 0x00, 0x00,
    0x01, 0x00, 0x00, 0x00, 0x04, 0x00, 0x00, 0x00, 0x05, 0x00, 0x00, 0x00, 0x00, 0x00, 0x00, 0x00,
    0x01, 0x00, 0x00, 0x00, 0x02, 0x00, 0x00, 0x00, 0x02, 0x00, 0x00, 0x00, 0x03, 0x00, 0x00, 0x00,
    0x03, 0x00, 0x00, 0x00, 0x01, 0x04, 0x01, 0x00, 0x88, 0xff, 0xff, 0xff, 0x00, 0x00, 0x09, 0x01,
    0x44, 0x00, 0x00, 0x00, 0x20, 0x00, 0x00, 0x00, 0x48, 0x00, 0x00, 0x00, 0x0c, 0x00, 0x00, 0x00,
    0x04, 0x00, 0x00, 0x00, 0x00, 0x00, 0x00, 0x00, 0x02, 0x00, 0x00, 0x00, 0xff, 0xff, 0xff, 0xff,
    0x05, 0x00, 0x00, 0x00, 0x1b, 0x00, 0x00, 0x00, 0x53, 0x74, 0x61, 0x74, 0x65, 0x66, 0x75, 0x6c,
    0x50, 0x61, 0x72, 0x74, 0x69, 0x74, 0x69, 0x6f, 0x6e, 0x65, 0x64, 0x43, 0x61, 0x6c, 0x6c, 0x5f,
    0x31, 0x3a, 0x30, 0x00, 0x02, 0x00, 0x00, 0x00, 0x01, 0x00, 0x00, 0x00, 0x05, 0x00, 0x00, 0x00,
    0x64, 0xff, 0xff, 0xff, 0x08, 0x00, 0x00, 0x00, 0x10, 0x00, 0x00, 0x00, 0x01, 0x00, 0x00, 0x00,
    0x80, 0xff, 0xff, 0xff, 0xff, 0xff, 0xff, 0xff, 0x01, 0x00, 0x00, 0x00, 0x00, 0x00, 0x80, 0x3b,
    0x18, 0x00, 0x1c, 0x00, 0x08, 0x00, 0x06, 0x00, 0x00, 0x00, 0x0c, 0x00, 0x10, 0x00, 0x00, 0x00,
    0x00, 0x00, 0x14, 0x00, 0x07, 0x00, 0x18, 0x00, 0x18, 0x00, 0x00, 0x00, 0x00, 0x00, 0x09, 0x01,
    0x4c, 0x00, 0x00, 0x00, 0x24, 0x00, 0x00, 0x00, 0x60, 0x00, 0x00, 0x00, 0x0c, 0x00, 0x00, 0x00,
    0x04, 0x00, 0x00, 0x00, 0x00, 0x00, 0x00, 0x00, 0x03, 0x00, 0x00, 0x00, 0xff, 0xff, 0xff, 0xff,
    0x00, 0x01, 0x00, 0x00, 0x02, 0x00, 0x00, 0x00, 0x1d, 0x00, 0x00, 0x00, 0x73, 0x65, 0x72, 0x76,
    0x69, 0x6e, 0x67, 0x5f, 0x64, 0x65, 0x66, 0x61, 0x75, 0x6c, 0x74, 0x5f, 0x69, 0x6e, 0x70, 0x75,
    0x74, 0x5f, 0x6c, 0x61, 0x79, 0x65, 0x72, 0x3a, 0x30, 0x00, 0x00, 0x00, 0x03, 0x00, 0x00, 0x00,
    0x01, 0x00, 0x00, 0x00, 0x00, 0x01, 0x00, 0x00, 0x02, 0x00, 0x00, 0x00, 0x0c, 0x00, 0x0c, 0x00,
    0x00, 0x00, 0x00, 0x00, 0x08, 0x00, 0x04, 0x00, 0x0c, 0x00, 0x00, 0x00, 0x08, 0x00, 0x00, 0x00,
    0x14, 0x00, 0x00, 0x00, 0x01, 0x00, 0x00, 0x00, 0xe8, 0xff, 0xff, 0xff, 0xff, 0xff, 0xff, 0xff,
    0x00, 0x00, 0x00, 0x00, 0x01, 0x00, 0x00, 0x00, 0xdb, 0xc0, 0xff, 0x3c, 0x18, 0x00, 0x14, 0x00,
    0x08, 0x00, 0x07, 0x00, 0x00, 0x00, 0x0c, 0x00, 0x00, 0x00, 0x00, 0x00, 0x00, 0x00, 0x00, 0x00,
    0x00, 0x00, 0x10, 0x00, 0x18, 0x00, 0x00, 0x00, 0x00, 0x00, 0x00, 0x03, 0x1c, 0x00, 0x00, 0x00,
    0x0c, 0x00, 0x00, 0x00, 0x04, 0x00, 0x00, 0x00, 0x00, 0x00, 0x00, 0x00, 0x07, 0x00, 0x00, 0x00,
    0x73, 0x63, 0x72, 0x61, 0x74, 0x63, 0x68, 0x00, 0x01, 0x00, 0x00, 0x00, 0x00, 0x2c, 0x00, 0x00,
    0xcc, 0xff, 0xff, 0xff, 0x00, 0x00, 0x00, 0x03, 0x24, 0x00, 0x00, 0x00, 0x02, 0x00, 0x00, 0x00,
    0x0c, 0x00, 0x00, 0x00, 0x04, 0x00, 0x00, 0x00, 0x00, 0x00, 0x00, 0x00, 0x09, 0x00, 0x00, 0x00,
    0x72, 0x65, 0x61, 0x64, 0x5f, 0x6f, 0x6e, 0x6c, 0x79, 0x00, 0x00, 0x00, 0x01, 0x00, 0x00, 0x00,
    0x50, 0x3e, 0x00, 0x00, 0x18, 0x00, 0x18, 0x00, 0x08, 0x00, 0x07, 0x00, 0x0c, 0x00, 0x10, 0x00,
    0x00, 0x00, 0x00, 0x00, 0x00, 0x00, 0x00, 0x00, 0x00, 0x00, 0x14, 0x00, 0x18, 0x00, 0x00, 0x00,
    0x00, 0x00, 0x00, 0x03, 0x30, 0x00, 0x00, 0x00, 0x01, 0x00, 0x00, 0x00, 0x0c, 0x00, 0x00, 0x00,
    0x04, 0x00, 0x00, 0x00, 0x00, 0x00, 0x00, 0x00, 0x16, 0x00, 0x00, 0x00, 0x65, 0x74, 0x68, 0x6f,
    0x73, 0x5f, 0x75, 0x5f, 0x63, 0x6f, 0x6d, 0x6d, 0x61, 0x6e, 0x64, 0x5f, 0x73, 0x74, 0x72, 0x65,
    0x61, 0x6d, 0x00, 0x00, 0x01, 0x00, 0x00, 0x00, 0x5c, 0x0f, 0x00, 0x00, 0x0c, 0x00, 0x10, 0x00,
    0x07, 0x00, 0x08, 0x00, 0x00, 0x00, 0x0c, 0x00, 0x0c, 0x00, 0x00, 0x00, 0x00, 0x00, 0x00, 0x20,
    0x08, 0x00, 0x00, 0x00, 0x20, 0x00, 0x00, 0x00, 0x07, 0x00, 0x00, 0x00, 0x65, 0x74, 0x68, 0x6f,
    0x73, 0x2d, 0x75, 0x00, 0x96, 0xc1, 0xff, 0xff, 0x04, 0x00, 0x00, 0x00, 0x50, 0x3e, 0x00, 0x00,
    0x42, 0x01, 0x00, 0x00, 0x00, 0xf3, 0x07, 0xd8, 0x45, 0x28, 0xca, 0xfb, 0xff, 0xff, 0xff, 0x2f,
    0x47, 0x24, 0x73, 0x29, 0x40, 0x05, 0x00, 0x00, 0x00, 0xfa, 0xe3, 0x45, 0x40, 0x28, 0x84, 0xfc,
    0xff, 0xff, 0xff, 0x23, 0xc1, 0x49, 0x43, 0x28, 0xb8, 0x01, 0x00, 0x00, 0x00, 0x84, 0xbd, 0x7b,
    0x73, 0x29, 0xbe, 0xff, 0xff, 0xff, 0xff, 0x24, 0x13, 0x2c, 0x49, 0x28, 0x71, 0x07, 0x00, 0x00,
    0x00, 0x98, 0x13, 0xba, 0x72, 0x29, 0xb5, 0x02, 0x00, 0x00, 0x00, 0x78, 0xbe, 0xb9, 0x79, 0x29,
    0x46, 0x03, 0x00, 0x00, 0x00, 0xa6, 0x59, 0xfe, 0x6e, 0x29, 0x83, 0xff, 0xff, 0xff, 0xff, 0x78,
    0x6d, 0xc7, 0x7d, 0x29, 0x5c, 0x03, 0x00, 0x00, 0x00, 0x96, 0x61, 0x1c, 0x68, 0x29, 0x25, 0xfd,
    0xff, 0xff, 0xff, 0x61, 0x48, 0x47, 0x76, 0x29, 0xc1, 0xff, 0xff, 0xff, 0xff, 0x48, 0x81, 0x09,
    0x76, 0x29, 0x09, 0x01, 0x00, 0x00, 0x00, 0x24, 0x44, 0xbe, 0x7d, 0x29, 0x1c, 0xfd, 0xff, 0xff,
    0xff, 0x60, 0x5c, 0xf4, 0x4a, 0x28, 0x9a, 0x03, 0x00, 0x00, 0x00, 0xd4, 0xb2, 0x49, 0x7c, 0x29,
    0xf1, 0x06, 0x5c, 0x01, 0xcc, 0x39, 0xe7, 0x5c, 0x05, 0x80, 0xe1, 0xd9, 0x70, 0x71, 0x56, 0x06,
    0xe4, 0x5c, 0xab, 0xb8, 0x5b, 0xcf, 0xd2, 0xfc, 0x35, 0x1f, 0x38, 0x27, 0xc1, 0xe8, 0x13, 0x08,
    0x91, 0xd5, 0x63, 0x3f, 0x98, 0x73, 0xc0, 0x39, 0xb2, 0xab, 0xaf, 0x4a, 0xfd, 0x0d, 0xad, 0x60,
    0x70, 0xce, 0x40, 0xee, 0x70, 0x0b, 0x58, 0x87, 0x16, 0x0d, 0x9c, 0xf7, 0xc1, 0x39, 0x67, 0x1f,
    0x00, 0x63, 0x7c, 0x91, 0x8f, 0xb7, 0x90, 0x9c, 0x03, 0xe7, 0x14, 0x30, 0x30, 0x17, 0xf3, 0x61,
    0x0c, 0x8a, 0x01, 0x73, 0x0e, 0x38, 0xa7, 0x1f, 0x46, 0xa0, 0x27, 0x59, 0xb2, 0x7f, 0x12, 0xce,
    0x19, 0xf1, 0x6b, 0xe5, 0xc1, 0xd5, 0x75, 0xc9, 0x02, 0xc8, 0x39, 0x70, 0x4e, 0xd8, 0x57, 0xc2,
    0x26, 0x7e, 0x0a, 0x96, 0x7e, 0x30, 0xe7, 0x80, 0x73, 0x00, 0xfb, 0x5b, 0x29, 0xf9, 0x47, 0x75,
    0xa4, 0xe0, 0x9c, 0x53, 0x44, 0x5f, 0xb6, 0x06, 0x8e, 0xd9, 0xd3, 0x81, 0x9c, 0x03, 0xe7, 0x2c,
    0x78, 0x41, 0x30, 0x73, 0x2d, 0x0d, 0x63, 0x01, 0x73, 0x0e, 0x38, 0x07, 0x7e, 0x80, 0xbf, 0x51,
    0x84, 0x39, 0xa1, 0x18, 0xfe, 0x7f, 0x33, 0x94, 0x3f, 0x9c, 0xd1, 0x77, 0xe7, 0x18, 0xf8, 0xff,
    0xff, 0x73, 0x4e, 0x73, 0x0e, 0x38, 0x47, 0xf2, 0xf1, 0x47, 0xee, 0x83, 0xff, 0x0c, 0x04, 0xce,
    0xd9, 0x05, 0xc6, 0xaa, 0xe2, 0xdc, 0xe5, 0xa8, 0x1f, 0xc8, 0x39, 0x70, 0xce, 0xa5, 0xdb, 0xb7,
    0x89, 0x8c, 0x22, 0x9a, 0x71, 0x30, 0xe7, 0x80, 0x73, 0x00, 0xa7, 0x32, 0xff, 0x6c, 0xd5, 0xf8,
    0xbf, 0xe1, 0x9c, 0x97, 0x56, 0xcd, 0x00, 0x17, 0x1d, 0x68, 0xa3, 0x81, 0x9c, 0x03, 0xe7, 0xd4,
    0xc2, 0xc3, 0xe4, 0xff, 0x9c, 0xf9, 0x26, 0x04, 0x73, 0x0e, 0x38, 0x27, 0x74, 0x80, 0xae, 0xb3,
    0x3f, 0x48, 0x4d, 0x0c, 0xce, 0xb9, 0x46, 0x2a, 0x48, 0x0e, 0x25, 0xa3, 0x73, 0x1a, 0xc8, 0x39,
    0x70, 0xce, 0xd0, 0x3e, 0x95, 0x9f, 0x29, 0xd9, 0xa2, 0x7e, 0x30, 0xe7, 0x80, 0x73, 0x80, 0xdf,
    0xca, 0xb0, 0x4e, 0x86, 0x58, 0xcf, 0xe0, 0x9c, 0x0d, 0xf8, 0xbf, 0x05, 0x74, 0xaa, 0xa7, 0x35,
    0x80, 0x9c, 0x03, 0xe7, 0x4c, 0x84, 0x8b, 0xb7, 0x9d, 0x98, 0x15, 0x8a, 0x05, 0x73, 0x0e, 0x38,
    0x47, 0xd7, 0x16, 0xc5, 0x6b, 0xa3, 0x0d, 0x06, 0xfe, 0x1f, 0xf8, 0xff, 0xff, 0xf3, 0xff, 0xff,
    0xb5, 0x26, 0xa4, 0xaa, 0x6c, 0xaf, 0xb0, 0x7f, 0xb3, 0x24, 0xfc, 0x7d, 0xa2, 0xfb, 0xb5, 0x71,
    0xc1, 0xe9, 0xca, 0xf1, 0xd0, 0xfe, 0xcb, 0xb0, 0xc1, 0xdd, 0xa9, 0xfc, 0xc1, 0xc1, 0xad, 0x80,
    0x07, 0xfe, 0xff, 0xff, 0xff, 0x33, 0x91, 0x9d, 0x76, 0x28, 0xfc, 0x03, 0x00, 0x00, 0x00, 0x09,
    0xdf, 0x9f, 0x44, 0x27, 0x35, 0xfd, 0xff, 0xff, 0xff, 0xd3, 0xc8, 0x4c, 0x4a, 0x27, 0x0a, 0x01,
    0x00, 0x00, 0x00, 0x9a, 0xec, 0x8b, 0x7b, 0x28, 0x9b, 0x01, 0x00, 0x00, 0x00, 0x41, 0xfe, 0x53,
    0x40, 0x27, 0xd7, 0x02, 0x00, 0x00, 0x00, 0xb9, 0x18, 0xf1, 0x70, 0x28, 0xba, 0xff, 0xff, 0xff,
    0xff, 0x0b, 0x90, 0xc5, 0x41, 0x27, 0xdb, 0xf8, 0xff, 0xff, 0xff, 0x60, 0x23, 0xa7, 0x61, 0x28,
    0xb0, 0x01, 0x00, 0x00, 0x00, 0xd2, 0x8e, 0xb8, 0x6a, 0x28, 0x14, 0xff, 0xff, 0xff, 0xff, 0xe0,
    0x0f, 0x3a, 0x72, 0x28, 0xdb, 0xfe, 0xff, 0xff, 0xff, 0x97, 0xe6, 0x49, 0x68, 0x28, 0x07, 0x05,
    0x00, 0x00, 0x00, 0x47, 0x64, 0xb9, 0x69, 0x28, 0x65, 0xfa, 0xff, 0xff, 0xff, 0x69, 0x44, 0xc7,
    0x75, 0x28, 0x63, 0xfd, 0xff, 0xff, 0xff, 0x84, 0x9d, 0x60, 0x69, 0x28, 0x3d, 0x01, 0x00, 0x00,
    0x00, 0x58, 0xd3, 0x43, 0x5f, 0x28, 0xd5, 0xfe, 0xff, 0xff, 0xff, 0xa0, 0x5b, 0x63, 0x79, 0x28,
    0xd0, 0x27, 0x5c, 0x01, 0x0c, 0x00, 0x56, 0x6a, 0x44, 0x18, 0x36, 0x7d, 0xaf, 0x01, 0x00, 0x50,
    0x25, 0x10, 0x15, 0x53, 0x50, 0x62, 0xa1, 0x00, 0x00, 0x6e, 0x8b, 0x01, 0x16, 0x10, 0xc3, 0x0f,
    0x26, 0x7b, 0xba, 0x16, 0x41, 0x1a, 0x7d, 0x09, 0x8a, 0x00, 0xa0, 0xd5, 0x75, 0x71, 0x4a, 0x17,
    0x35, 0x64, 0x0d, 0x00, 0x5b, 0x91, 0x7a, 0xd0, 0x58, 0xaf, 0x2e, 0x27, 0x33, 0x53, 0x5d, 0x15,
    0x96, 0x6a, 0x07, 0x3c, 0x00, 0x20, 0x4c, 0x12, 0xe4, 0x54, 0x20, 0x25, 0x5d, 0x04, 0x00, 0x19,
    0x60, 0x8b, 0x6c, 0x85, 0xbb, 0x7d, 0x6e, 0x22, 0x18, 0x89, 0x47, 0xfd, 0x5a, 0x68, 0xd5, 0x00,
    0x70, 0x31, 0xf6, 0x92, 0xd8, 0xd6, 0x4f, 0xa3, 0x01, 0x00, 0x1d, 0x77, 0x49, 0x1d, 0x32, 0x96,
    0x79, 0x15, 0x18, 0x90, 0x75, 0x2b, 0x72, 0x2a, 0x6e, 0x4f, 0x00, 0xe0, 0xd0, 0x1f, 0x0b, 0xdb,
    0x64, 0xd5, 0x28, 0x06, 0x00, 0x34, 0x6e, 0x1a, 0x91, 0x96, 0x08, 0x26, 0x8f, 0x26, 0x5f, 0xd4,
    0x65, 0x71, 0x2f, 0x54, 0x64, 0x00, 0x00, 0x77, 0x2a, 0xf0, 0x06, 0x8a, 0xf3, 0x69, 0x07, 0x00,
    0x60, 0x6b, 0x0e, 0x36, 0x21, 0x72, 0x3b, 0x8b, 0x4e, 0x0b, 0x14, 0xaf, 0x3f, 0x9b, 0x55, 0x22,
    0x00, 0x10, 0x6c, 0x50, 0x51, 0xb6, 0xa1, 0x13, 0xe7, 0x04, 0x00, 0x77, 0x80, 0x8b, 0x40, 0x3c,
    0x97, 0x5f, 0x6b, 0x86, 0x00, 0x65, 0xae, 0x15, 0x8e, 0x23, 0x39, 0x80, 0xb0, 0xc5, 0x05, 0x8d,
    0x66, 0xd2, 0x51, 0xe0, 0x04, 0x00, 0x12, 0xe4, 0xac, 0x9d, 0x8c, 0x72, 0xbe, 0xb8, 0x7a, 0x45,
    0x33, 0x98, 0x38, 0x82, 0x8d, 0x44, 0x40, 0xb0, 0x37, 0xa6, 0x30, 0x00, 0x07, 0x29, 0x57, 0x06,
    0x00, 0x5d, 0x31, 0x0f, 0x8d, 0x79, 0x38, 0x6a, 0x22, 0x59, 0x92, 0xa7, 0x07, 0x6a, 0x6b, 0x52,
    0x80, 0x80, 0x00, 0x52, 0x72, 0xa1, 0xf1, 0x34, 0x12, 0x43, 0x05, 0x01, 0x1a, 0x4b, 0x44, 0x8a,
    0x10, 0x5c, 0x3f, 0x63, 0x00, 0x50, 0xd3, 0x10, 0xf4, 0x04, 0xe0, 0xab, 0x83, 0x3c, 0x85, 0xea,
    0x0d, 0xea, 0xd8, 0x20, 0x53, 0x02, 0x00, 0x70, 0x45, 0x98, 0xb1, 0x67, 0x35, 0x73, 0x20, 0x00,
    0x70, 0x13, 0x50, 0x96, 0x60, 0x15, 0x36, 0x82, 0x63, 0xf5, 0x37, 0x70, 0xc3, 0xa9, 0xc8, 0x63,
    0x08, 0x00, 0x94, 0x29, 0x07, 0x81, 0x75, 0x00, 0x5e, 0x15, 0x00, 0xf0, 0x91, 0x99, 0x53, 0xb6,
    0xd3, 0x4d, 0xa1, 0xd4, 0xe9, 0xe5, 0x38, 0x61, 0x11, 0x41, 0x66, 0x00, 0xf0, 0x7c, 0x2f, 0x7c,
    0x66, 0x6f, 0xa1, 0xc8, 0x3f, 0xff, 0x4f, 0x01, 0xce, 0xa8, 0x6e, 0xe7, 0x36, 0x09, 0xf4, 0xff,
    0x5d, 0x64, 0xb4, 0x39, 0xc9, 0x4e, 0x0f, 0x49, 0xff, 0xff, 0xff, 0xff, 0xff, 0xff, 0xff, 0xff,
    0xff, 0xff, 0xff, 0xff, 0xff, 0xff, 0xff, 0xff, 0xff, 0xff, 0xff, 0xff, 0x0f, 0x00, 0x00, 0x00,
    0x2e, 0x99, 0x4e, 0x3d, 0x4e, 0x6e, 0x2e, 0x6f, 0x00, 0x30, 0xf0, 0x66, 0x13, 0xbe, 0x9b, 0xc3,
    0x38, 0xc4, 0xdb, 0xf3, 0x84, 0x06, 0x93, 0x71, 0xb0, 0x87, 0x00, 0x6a, 0x9e, 0x3a, 0x41, 0x87,
    0x2d, 0x61, 0x72, 0x00, 0x60, 0xfe, 0x1a, 0x98, 0xc5, 0x6c, 0x94, 0x30, 0x04, 0x5f, 0x4d, 0x09,
    0xa4, 0xd5, 0x51, 0x75, 0x03, 0x00, 0x7b, 0x39, 0x92, 0x22, 0x74, 0xa6, 0x3e, 0x66, 0x00, 0x20,
    0x93, 0xb7, 0x04, 0x0a, 0x72, 0x46, 0xf5, 0x45, 0xb0, 0xeb, 0x84, 0x83, 0x66, 0x77, 0x41, 0x02,
    0x00, 0x7f, 0x73, 0x17, 0x4c, 0x81, 0x3f, 0x92, 0x6e, 0x00, 0x90, 0x38, 0x4b, 0x7c, 0x78, 0xf0,
    0x61, 0xe9, 0xc5, 0x07, 0x01, 0x02, 0xd2, 0x08, 0x9a, 0x67, 0x00, 0x00, 0x56, 0x32, 0xa7, 0x12,
    0xfa, 0x36, 0x6f, 0x86, 0x00, 0xb0, 0x47, 0xd8, 0xce, 0x49, 0x50, 0x36, 0x39, 0x62, 0xf7, 0x39,
    0xe3, 0xc8, 0xb8, 0xf5, 0x65, 0x01, 0x00, 0x34, 0x25, 0x9b, 0x7c, 0x15, 0x22, 0x61, 0x92, 0x00,
    0xe0, 0x64, 0xc8, 0x5f, 0x05, 0x3c, 0xbb, 0xc2, 0xf1, 0x3a, 0xb7, 0xa8, 0x71, 0xd6, 0x85, 0xda,
    0x0f, 0x00, 0x53, 0x4a, 0x11, 0xed, 0x7c, 0x01, 0xc6, 0x61, 0x00, 0x00, 0x03, 0x96, 0x79, 0xf5,
    0x71, 0x06, 0x96, 0xcc, 0xb2, 0x6f, 0x7a, 0x5c, 0x51, 0xf6, 0xc2, 0x03, 0x00, 0x33, 0x8f, 0x5e,
    0x4d, 0x22, 0x94, 0x31, 0x00, 0x00, 0xe0, 0xb1, 0xc4, 0x64, 0x47, 0x01, 0xb9, 0xd6, 0x67, 0x25,
    0xc3, 0x05, 0x03, 0xd1, 0xb8, 0x56, 0x06, 0x00, 0x88, 0x90, 0x3b, 0x28, 0x50, 0x5e, 0x88, 0x9e,
    0x00, 0x10, 0xd5, 0x90, 0x58, 0x38, 0x9a, 0x86, 0x93, 0x06, 0xd4, 0x36, 0xbf, 0x22, 0x9d, 0xe9,
    0xdb, 0x08, 0x00, 0x06, 0x47, 0x34, 0x62, 0x52, 0xa5, 0x00, 0x71, 0x00, 0x50, 0x36, 0xc6, 0x89,
    0x82, 0x46, 0x88, 0xf0, 0x08, 0xb9, 0x80, 0x9c, 0x74, 0xf1, 0xc0, 0xe6, 0x02, 0x00, 0x4b, 0x6a,
    0x0f, 0x3b, 0xee, 0x2e, 0x99, 0x7b, 0x00, 0x20, 0xa8, 0xb6, 0xca, 0xc1, 0xb1, 0x51, 0x53, 0x81,
    0x92, 0x86, 0x3b, 0xda, 0x08, 0x11, 0x90, 0x00, 0x00, 0x3d, 0x5a, 0x43, 0x61, 0xa0, 0x73, 0x94,
    0x08, 0x00, 0x40, 0x04, 0xf6, 0xa3, 0x82, 0x42, 0xa0, 0x49, 0xb5, 0x22, 0x54, 0xe3, 0x66, 0x08,
    0x16, 0x7a, 0x01, 0x00, 0x91, 0x30, 0xfd, 0x76, 0xbe, 0x87, 0x0c, 0x63, 0xf0, 0x7f, 0x7b, 0x03,
    0x99, 0xd4, 0x84, 0x1a, 0x11, 0xf3, 0xff, 0x25, 0x76, 0xf0, 0x37, 0xa5, 0x06, 0xad, 0x19, 0xff,
    0xef, 0xc4, 0xb2, 0x5a, 0xb3, 0x66, 0x70, 0xfc, 0xf2, 0xff, 0xff, 0xff, 0xff, 0xff, 0xff, 0xff,
    0xff, 0xff, 0xff, 0xff, 0xff, 0xff, 0xff, 0xff, 0xff, 0xff, 0xff, 0xff, 0x0f, 0x00, 0x00, 0x00,
    0x00, 0xa9, 0x93, 0xf2, 0x92, 0x21, 0x26, 0x85, 0xd1, 0xc5, 0x11, 0xf0, 0x99, 0x72, 0xf9, 0x01,
    0x0a, 0x00, 0x60, 0x04, 0x58, 0x09, 0x06, 0x7b, 0x2d, 0x4d, 0x00, 0x00, 0x07, 0xc7, 0x32, 0x66,
    0x40, 0xfa, 0x53, 0x5a, 0xf3, 0xb6, 0xd3, 0x42, 0xb0, 0x3a, 0x02, 0x05, 0x00, 0xba, 0x3c, 0x90,
    0x44, 0x9c, 0x8e, 0x78, 0x18, 0x00, 0x30, 0xa9, 0x6c, 0x21, 0x24, 0xa1, 0x21, 0x89, 0xc3, 0x45,
    0x75, 0xa5, 0x75, 0x46, 0x45, 0x55, 0x07, 0x00, 0x03, 0x35, 0x9e, 0x75, 0x18, 0x60, 0x84, 0x37,
    0x00, 0x80, 0x63, 0x25, 0x87, 0xe6, 0xc5, 0x65, 0xf4, 0x01, 0x23, 0xd7, 0xbf, 0x02, 0x58, 0xd6,
    0xef, 0x09, 0x00, 0x3e, 0x3b, 0x04, 0x61, 0x08, 0xaf, 0xb7, 0x35, 0x00, 0x00, 0xa7, 0xb7, 0xda,
    0x76, 0xd1, 0x5f, 0x21, 0x28, 0xf3, 0xd1, 0x46, 0x60, 0xcd, 0xbb, 0x12, 0x09, 0x00, 0xb0, 0x4b,
    0x34, 0x6c, 0x56, 0xad, 0x1e, 0x84, 0x00, 0x30, 0xa0, 0x94, 0x56, 0xe2, 0x15, 0xd5, 0x85, 0x58,
    0xf1, 0x03, 0xe6, 0xa4, 0x83, 0x48, 0xb9, 0x01, 0x00, 0x07, 0x5d, 0x45, 0x2f, 0x7b, 0x6e, 0x86,
    0x36, 0x00, 0x00, 0x32, 0xf7, 0x55, 0xca, 0xb9, 0xd7, 0xf8, 0xb6, 0x75, 0xb1, 0xd6, 0x56, 0xf2,
    0x34, 0x11, 0x06, 0x00, 0x1f, 0xac, 0x03, 0x56, 0x83, 0xe7, 0x02, 0x5f, 0x00, 0xe0, 0x34, 0x78,
    0x92, 0xf4, 0xe6, 0x58, 0xad, 0x73, 0x14, 0x65, 0x8f, 0xf7, 0xb6, 0xa1, 0x10, 0x00, 0x00, 0x10,
    0x93, 0x1b, 0x8d, 0x33, 0x90, 0x77, 0x49, 0x00, 0x10, 0x33, 0xb3, 0x4f, 0x80, 0x32, 0x93, 0x03,
    0x30, 0xa2, 0xd2, 0xc8, 0xf1, 0x63, 0xd6, 0x65, 0x00, 0x00, 0x7b, 0x11, 0x90, 0x48, 0x3f, 0x5b,
    0x10, 0x81, 0x00, 0x30, 0xb2, 0x95, 0x37, 0x6b, 0x09, 0xb2, 0x46, 0xe8, 0x53, 0x93, 0x8b, 0x65,
    0xb5, 0x88, 0x13, 0x00, 0x00, 0x26, 0x89, 0x02, 0xae, 0xc6, 0x36, 0xfc, 0x18, 0x00, 0x00, 0xae,
    0x30, 0x85, 0x27, 0xdc, 0x0f, 0xa0, 0xb6, 0x64, 0x46, 0x6a, 0x56, 0x1d, 0x05, 0xb3, 0x05, 0x00,
    0x51, 0x60, 0x71, 0x38, 0x44, 0x5c, 0x76, 0x3a, 0x00, 0x70, 0xf4, 0xc4, 0xb5, 0x97, 0xb6, 0x88,
    0xe1, 0xf6, 0x59, 0x01, 0x16, 0x7d, 0x11, 0xbc, 0x52, 0x07, 0x00, 0xa2, 0x21, 0x43, 0x8e, 0x96,
    0xc5, 0x78, 0xcb, 0x00, 0x10, 0xba, 0x56, 0x55, 0x75, 0x50, 0x1d, 0x3f, 0x17, 0x10, 0x01, 0xc2,
    0x8f, 0xce, 0xf4, 0x0a, 0xf7, 0xff, 0x67, 0x00, 0x02, 0x5c, 0x3c, 0x7f, 0x3b, 0xbc, 0xff, 0x0f,
    0x34, 0xb8, 0xd1, 0x75, 0x46, 0xc6, 0x61, 0xf2, 0xff, 0xff, 0xff, 0xff, 0xff, 0xff, 0xff, 0xff,
    0xff, 0xff, 0xff, 0xff, 0xff, 0xff, 0xff, 0xff, 0xff, 0xff, 0xff, 0xff, 0x0f, 0x00, 0x00, 0x90,
    0xf5, 0xd3, 0x26, 0xae, 0x40, 0x3c, 0x3b, 0x00, 0x00, 0x38, 0x0b, 0x72, 0x78, 0x13, 0x3b, 0x73,
    0x77, 0x00, 0xa0, 0xc3, 0x55, 0x3a, 0xd3, 0xa6, 0xab, 0xf9, 0x00, 0x64, 0xda, 0xd1, 0x05, 0xf4,
    0xa1, 0x11, 0x07, 0x00, 0x04, 0xa9, 0x86, 0xca, 0x3e, 0xfc, 0xc9, 0x9a, 0x00, 0xb0, 0x77, 0xf0,
    0xb8, 0xa6, 0xec, 0xc3, 0x7f, 0x36, 0xa0, 0x95, 0x31, 0x08, 0x98, 0x9e, 0xf1, 0x04, 0x00, 0x36,
    0xc3, 0x23, 0x5d, 0x0b, 0x90, 0x28, 0xa7, 0x00, 0x90, 0x3b, 0x09, 0x01, 0x17, 0xdd, 0x9a, 0x3a,
    0x7c, 0x73, 0xd9, 0x56, 0x72, 0x4b, 0xb3, 0x43, 0x07, 0x00, 0x88, 0x97, 0x8f, 0x71, 0x84, 0x23,
    0x44, 0x46, 0x00, 0xb0, 0xa0, 0xab, 0xf6, 0xe2, 0x14, 0x16, 0xa6, 0x75, 0x1e, 0xa0, 0x85, 0x74,
    0x78, 0xd2, 0x3f, 0x0b, 0x00, 0x7d, 0xa4, 0x65, 0x43, 0x96, 0x26, 0x10, 0x29, 0x00, 0xf0, 0xa1,
    0x16, 0xa1, 0x84, 0xe5, 0x14, 0x26, 0xca, 0xf7, 0x69, 0x8b, 0x74, 0x3e, 0xe4, 0x39, 0x0b, 0x00,
    0x52, 0x4e, 0x56, 0x2a, 0xb5, 0x9b, 0x62, 0x19, 0x00, 0xe0, 0x6e, 0xbc, 0xed, 0xf4, 0x46, 0xb9,
    0x34, 0x07, 0x59, 0x3c, 0xac, 0x03, 0x48, 0x86, 0x18, 0x0b, 0x00, 0x50, 0x33, 0x0e, 0x48, 0x74,
    0x07, 0xbc, 0x4f, 0x00, 0x70, 0x30, 0x46, 0xd8, 0x7d, 0x62, 0xb4, 0x96, 0x32, 0x2c, 0x30, 0x05,
    0xc2, 0xe7, 0x24, 0xcd, 0x02, 0x00, 0x6a, 0x9a, 0x56, 0x2b, 0x97, 0x8b, 0x91, 0xb4, 0x00, 0xa0,
    0x8a, 0xa8, 0xc8, 0x97, 0xd4, 0x13, 0x9c, 0xf8, 0x25, 0xa4, 0x61, 0x23, 0x7f, 0xc9, 0xe5, 0x08,
    0x00, 0x2f, 0xc7, 0x7d, 0xa6, 0x3d, 0xf1, 0xab, 0x96, 0x00, 0x70, 0x7c, 0xe9, 0x35, 0xc1, 0xc4,
    0x01, 0xea, 0x86, 0xc0, 0xdf, 0x92, 0xba, 0x51, 0x85, 0x98, 0x0c, 0x00, 0x46, 0x40, 0x4b, 0xd1,
    0xd2, 0x7b, 0x53, 0xaa, 0x00, 0xa0, 0x31, 0x30, 0xcf, 0xbb, 0xcb, 0xaa, 0xa4, 0x03, 0x84, 0x77,
    0x58, 0x2a, 0xf8, 0xc5, 0xff, 0x09, 0x00, 0x54, 0x56, 0xe2, 0x20, 0x0b, 0x06, 0x70, 0x84, 0x00,
    0xa0, 0xa6, 0x53, 0x19, 0x51, 0x17, 0xc4, 0x8f, 0x0a, 0xc7, 0x04, 0x13, 0x80, 0x0c, 0x68, 0x83,
    0x01, 0x00, 0xc5, 0xb8, 0xac, 0x9b, 0xd7, 0x48, 0x54, 0x62, 0x00, 0xc0, 0x85, 0x75, 0xf0, 0x68,
    0x6b, 0xc7, 0xf3, 0x82, 0x40, 0x31, 0x77, 0x3e, 0xa8, 0x22, 0x86, 0x00, 0xf0, 0x4c, 0x55, 0x27,
    0x88, 0x86, 0x2d, 0xda, 0x19, 0xff, 0xff, 0xe5, 0xf1, 0xf3, 0xff, 0xff, 0xff, 0xff, 0xff, 0xff,
    0xff, 0xff, 0xff, 0xff, 0xff, 0xff, 0xff, 0xff, 0xff, 0xff, 0xff, 0xff, 0xff, 0xff, 0xff, 0x0f,
    0xff, 0xff, 0xff, 0xff, 0xff, 0xff, 0xff, 0xff, 0xff, 0xff, 0xff, 0xff, 0xff, 0xff, 0xff, 0xff,
    0xd4, 0xff, 0xff, 0xff, 0xff, 0xe3, 0xfc, 0xea, 0x79, 0x28, 0x4b, 0xff, 0xff, 0xff, 0xff, 0x0b,
    0x0c, 0x05, 0x6f, 0x28, 0x5d, 0xf9, 0xff, 0xff, 0xff, 0x33, 0x8a, 0xdd, 0x6b, 0x28, 0x0a, 0xfd,
    0xff, 0xff, 0xff, 0x25, 0x4f, 0xc6, 0x60, 0x28, 0x50, 0xff, 0xff, 0xff, 0xff, 0x20, 0xed, 0xa8,
    0x7e, 0x28, 0xda, 0xfd, 0xff, 0xff, 0xff, 0x7d, 0x2e, 0x9f, 0x7c, 0x28, 0x98, 0xfb, 0xff, 0xff,
    0xff, 0x04, 0x18, 0x25, 0x68, 0x28, 0x42, 0xf9, 0xff, 0xff, 0xff, 0x58, 0x66, 0x15, 0x74, 0x28,
    0x13, 0xfc, 0xff, 0xff, 0xff, 0xd6, 0xf8, 0x82, 0x43, 0x27, 0x4a, 0xff, 0xff, 0xff, 0xff, 0x0e,
    0x87, 0x18, 0x46, 0x27, 0x4a, 0x02, 0x00, 0x00, 0x00, 0x57, 0xea, 0xb1, 0x6d, 0x28, 0x48, 0xf9,
    0xff, 0xff, 0xff, 0x93, 0x77, 0x8c, 0x75, 0x28, 0xaf, 0xfa, 0xff, 0xff, 0xff, 0x85, 0x1f, 0x23,
    0x6a, 0x28, 0x44, 0xfd, 0xff, 0xff, 0xff, 0x51, 0x28, 0x1b, 0x70, 0x28, 0xba, 0x02, 0x00, 0x00,
    0x00, 0x72, 0xea, 0x25, 0x62, 0x28, 0x20, 0xff, 0xff, 0xff, 0xff, 0xf0, 0x68, 0x6b, 0x5a, 0x28,
    0xd8, 0x27, 0x5c, 0x01, 0x0c, 0x00, 0x14, 0x2f, 0xa6, 0x55, 0xfc, 0xd5, 0xb0, 0x25, 0x00, 0x60,
    0x7c, 0xf9, 0x83, 0xf5, 0xd3, 0x52, 0x84, 0x06, 0x00, 0x1b, 0x1e, 0x2e, 0x61, 0x84, 0x4b, 0x98,
    0x26, 0xc4, 0x33, 0x9c, 0xc7, 0xf2, 0x0b, 0x3f, 0x05, 0x00, 0x40, 0x86, 0x27, 0xd0, 0x44, 0xd7,
    0x93, 0x82, 0x0b, 0x00, 0x9c, 0x0b, 0x4c, 0x81, 0x2a, 0x49, 0x1d, 0x25, 0x5f, 0x0f, 0x2c, 0x21,
    0xa4, 0x55, 0x5e, 0xfd, 0x00, 0x00, 0x55, 0xc6, 0x43, 0x51, 0xd3, 0x31, 0xa3, 0x01, 0x00, 0x3b,
    0x5b, 0x53, 0x09, 0x63, 0x2d, 0x0a, 0xe4, 0xa4, 0x31, 0xb2, 0x94, 0x40, 0x4b, 0x3f, 0x37, 0x00,
    0xc0, 0xc1, 0x65, 0x31, 0x60, 0x89, 0x18, 0x4b, 0x0a, 0x00, 0xa4, 0x25, 0x62, 0x78, 0x6d, 0x4d,
    0x9a, 0xad, 0x41, 0x37, 0x41, 0x6e, 0x3e, 0x65, 0x98, 0x8b, 0x00, 0xc0, 0x67, 0x70, 0xf7, 0xb5,
    0xc2, 0x5a, 0x39, 0x0a, 0x00, 0xaa, 0x65, 0x92, 0x0a, 0x0e, 0x5d, 0x19, 0x1d, 0x25, 0x35, 0x87,
    0xae, 0x66, 0xab, 0x9a, 0x36, 0x00, 0x70, 0x39, 0x82, 0x62, 0x36, 0xf1, 0xea, 0xb6, 0x05, 0x00,
    0x82, 0x95, 0x8e, 0x48, 0x11, 0x88, 0x04, 0x2d, 0xc3, 0x24, 0xa6, 0x3b, 0x22, 0x98, 0x1d, 0x51,
    0x00, 0x90, 0xfa, 0x42, 0xd9, 0xbf, 0x30, 0x54, 0x1a, 0x01, 0x00, 0x76, 0x20, 0x96, 0x04, 0xfd,
    0x04, 0x73, 0x8b, 0x12, 0x63, 0x79, 0x44, 0x0c, 0x65, 0x91, 0x86, 0x00, 0x40, 0x90, 0x09, 0x6c,
    0x01, 0x63, 0xd4, 0xcb, 0x02, 0x00, 0x61, 0x35, 0xca, 0x56, 0x5f, 0x13, 0x6a, 0x30, 0x23, 0x4b,
    0x19, 0x36, 0x2b, 0x07, 0x29, 0x8f, 0x00, 0x60, 0x10, 0x28, 0x43, 0xc7, 0x94, 0x0b, 0xf8, 0x04,
    0x00, 0x5e, 0x5d, 0x25, 0x77, 0x57, 0x04, 0x27, 0x80, 0x60, 0x9a, 0x48, 0x67, 0x7d, 0x63, 0xab,
    0xc3, 0x00, 0x30, 0x9b, 0x14, 0xc6, 0x67, 0x82, 0xa4, 0xc7, 0x06, 0x00, 0x6c, 0x32, 0x6c, 0x02,
    0x0c, 0x8b, 0x3f, 0x41, 0x7a, 0x5b, 0x54, 0xac, 0x43, 0x33, 0x4f, 0x8c, 0x00, 0x40, 0xa1, 0xc6,
    0x35, 0x87, 0x8a, 0x61, 0x83, 0x05, 0x00, 0x5b, 0x5b, 0x65, 0x00, 0x54, 0xd5, 0x24, 0x67, 0x02,
    0xfd, 0x0e, 0xcb, 0x1a, 0x71, 0x33, 0x1c, 0x00, 0xd0, 0xa4, 0x27, 0xa0, 0x3b, 0x25, 0x39, 0xa4,
    0x0b, 0x00, 0x4c, 0xd9, 0x19, 0xa7, 0x09, 0x52, 0xc4, 0x7d, 0x04, 0x27, 0x64, 0x2b, 0xe6, 0x12,
    0x6d, 0x19, 0x00, 0x40, 0x13, 0x16, 0x35, 0x10, 0xd8, 0x74, 0x58, 0x0b, 0xf0, 0xf4, 0xc0, 0xd6,
    0x55, 0x2f, 0x02, 0x94, 0xdf, 0xff, 0x5f, 0x08, 0xa5, 0xa4, 0xc8, 0x68, 0xe9, 0xe7, 0xf3, 0xff,
    0x24, 0x79, 0x44, 0x34, 0xa4, 0x6d, 0x16, 0x41, 0xff, 0xff, 0xff, 0xff, 0xff, 0xff, 0xff, 0xff,
    0xff, 0xff, 0xff, 0xff, 0xff, 0xff, 0xff, 0xff, 0xff, 0xff, 0xff, 0xff, 0x0f, 0x00, 0x40, 0x00,
    0x48, 0x34, 0x84, 0x7e, 0x80, 0x44, 0x79, 0xbf, 0xa4, 0x41, 0x9d, 0xdd, 0x8d, 0x16, 0x07, 0x32,
    0x00, 0xc0, 0xf8, 0x16, 0x77, 0xe6, 0x50, 0x95, 0x58, 0x02, 0x00, 0x41, 0x76, 0x64, 0x8f, 0xc9,
    0x1d, 0x2c, 0x1f, 0x35, 0x02, 0x25, 0x9c, 0x81, 0x5a, 0xf2, 0xd0, 0x00, 0xa0, 0xd1, 0xa5, 0x83,
    0xe6, 0xe4, 0xb3, 0xb0, 0x0d, 0x00, 0x55, 0x8f, 0x11, 0x5b, 0xb5, 0x39, 0x31, 0x62, 0x08, 0x69,
    0x01, 0x2e, 0x3b, 0x0d, 0x92, 0x03, 0x00, 0xd0, 0x00, 0x70, 0x65, 0x85, 0xe6, 0xd1, 0xc3, 0x01,
    0x00, 0x0f, 0x32, 0x81, 0x2f, 0x57, 0xb7, 0xaa, 0xcd, 0x56, 0x60, 0x11, 0x75, 0x26, 0x2e, 0x20,
    0x99, 0x00, 0x40, 0xeb, 0xb2, 0x8a, 0x70, 0x31, 0xa3, 0xc5, 0x05, 0x00, 0xaa, 0x29, 0x59, 0x94,
    0x90, 0x0a, 0x2b, 0x31, 0xb4, 0x16, 0xc6, 0x05, 0x0c, 0xae, 0x08, 0x23, 0x00, 0x10, 0xf7, 0x2c,
    0x53, 0x42, 0x17, 0xc1, 0x8f, 0x08, 0x00, 0x88, 0x21, 0x78, 0x30, 0x7e, 0x24, 0x19, 0x57, 0x13,
    0x12, 0x28, 0x03, 0x45, 0x30, 0x1a, 0x27, 0x00, 0x20, 0x12, 0x5b, 0xb6, 0xb5, 0x41, 0x27, 0x48,
    0x02, 0x00, 0x52, 0x27, 0x23, 0x2c, 0x8d, 0x4f, 0x4c, 0xb9, 0x26, 0x16, 0x0c, 0xa6, 0x6b, 0x91,
    0x34, 0x75, 0x00, 0xa0, 0x58, 0x62, 0x1a, 0xd9, 0x53, 0x4a, 0xa6, 0x07, 0x00, 0x48, 0x06, 0x7d,
    0x12, 0x95, 0x58, 0x5c, 0x16, 0xaa, 0x9c, 0x7e, 0xe9, 0x1a, 0x45, 0x7a, 0x0a, 0x00, 0xd0, 0x31,
    0xc4, 0x62, 0x88, 0x33, 0x89, 0xc7, 0x01, 0x00, 0x6a, 0x7c, 0x71, 0x34, 0x40, 0x14, 0x1d, 0xcc,
    0x00, 0x28, 0x62, 0xca, 0x08, 0x66, 0x0e, 0x79, 0x00, 0xe0, 0x13, 0xd1, 0x90, 0xf6, 0x12, 0x5a,
    0x09, 0x01, 0x00, 0xc0, 0x60, 0x55, 0x1a, 0x37, 0x8c, 0x22, 0x42, 0x25, 0x54, 0x86, 0xaa, 0x56,
    0x74, 0xfc, 0xda, 0x00, 0xe0, 0xf4, 0x76, 0xda, 0x95, 0x09, 0xb0, 0x15, 0x04, 0x00, 0x4a, 0x29,
    0x8f, 0x1c, 0x00, 0x04, 0xf1, 0x6c, 0x23, 0x2e, 0x43, 0x39, 0x0b, 0x8d, 0x40, 0x4e, 0x00, 0xd0,
    0x9b, 0x57, 0x64, 0x94, 0x38, 0x24, 0x25, 0x0b, 0x00, 0x4a, 0x67, 0x10, 0x2b, 0x50, 0x47, 0x3b,
    0x0d, 0x0c, 0x2c, 0xa4, 0x59, 0x83, 0xbf, 0x73, 0xa1, 0x00, 0x00, 0x39, 0xf1, 0xf2, 0xb8, 0x90,
    0x55, 0xf1, 0x01, 0x00, 0x1a, 0x3f, 0x0b, 0x84, 0x74, 0x53, 0x48, 0x45, 0x5d, 0x6a, 0xb0, 0x65,
    0x13, 0xca, 0x8e, 0x33, 0xf0, 0xcf, 0x25, 0x94, 0x37, 0x21, 0x02, 0x5f, 0xa6, 0xf3, 0xff, 0x09,
    0x9d, 0x77, 0xa8, 0x3f, 0x67, 0x48, 0xd3, 0xff, 0xff, 0xff, 0xff, 0xff, 0xff, 0xff, 0xff, 0xff,
    0xff, 0xff, 0xff, 0xff, 0xff, 0xff, 0xff, 0xff, 0xff, 0xff, 0xff, 0xff, 0x0f, 0x00, 0x00, 0xa7,
    0xa4, 0x63, 0xb0, 0x9f, 0xa4, 0x9e, 0x56, 0x00, 0x00, 0x01, 0x66, 0x45, 0x47, 0xbf, 0xcc, 0x39,
    0x04, 0x00, 0x9f, 0x00, 0x85, 0x08, 0x42, 0x8a, 0xf2, 0x28, 0x75, 0x6b, 0x0f, 0x4d, 0x7d, 0x40,
    0x87, 0x40, 0x00, 0x30, 0x79, 0x17, 0x22, 0xd3, 0x69, 0x67, 0x40, 0x05, 0x00, 0x2e, 0x81, 0x53,
    0x23, 0x81, 0x6a, 0xa9, 0x30, 0x64, 0x4f, 0x42, 0x8a, 0xb4, 0xfc, 0x51, 0x60, 0x00, 0x00, 0x53,
    0x71, 0xd4, 0x25, 0x57, 0x22, 0x31, 0x09, 0x00, 0x6a, 0x9c, 0x5c, 0x27, 0x73, 0x58, 0xd1, 0xa2,
    0x4b, 0x68, 0x92, 0x21, 0x88, 0x50, 0x05, 0x75, 0x00, 0x10, 0x1a, 0x51, 0x62, 0xa0, 0x08, 0x35,
    0x6b, 0x07, 0x00, 0x7f, 0x38, 0x63, 0x7c, 0x31, 0x56, 0x09, 0x4c, 0x15, 0x3b, 0xa3, 0x05, 0x86,
    0x0d, 0x65, 0x9c, 0x00, 0x80, 0x28, 0xe9, 0x51, 0xb6, 0x29, 0xf8, 0xf7, 0x0b, 0x00, 0x6d, 0x65,
    0x2a, 0x76, 0xb8, 0x4f, 0x4a, 0x2c, 0x48, 0x89, 0x94, 0x80, 0x2f, 0x3d, 0x29, 0x4b, 0x00, 0x90,
    0x14, 0x7d, 0xe5, 0x01, 0x92, 0x5b, 0x26, 0x05, 0x00, 0x1f, 0x86, 0x7c, 0x70, 0x1f, 0x18, 0x12,
    0x0d, 0x31, 0x68, 0xf6, 0x33, 0xd4, 0x1d, 0x31, 0x68, 0x00, 0x00, 0x03, 0x85, 0x32, 0xb2, 0xb3,
    0xc8, 0x4b, 0x07, 0x00, 0x80, 0x68, 0x3f, 0x26, 0xbc, 0x42, 0xad, 0xae, 0x9f, 0x6a, 0xa9, 0x50,
    0x73, 0xa3, 0x6e, 0xad, 0x00, 0xb0, 0x08, 0x45, 0x27, 0xa1, 0x35, 0xe4, 0x50, 0x06, 0x00, 0x64,
    0x43, 0x90, 0x60, 0x9c, 0x6c, 0x40, 0x3e, 0x0e, 0x50, 0x5c, 0x58, 0xdd, 0xad, 0x6e, 0xa0, 0x00,
    0x70, 0x82, 0xc8, 0xcf, 0x89, 0x2a, 0xc5, 0xf8, 0x01, 0x00, 0x54, 0x78, 0x84, 0x61, 0x82, 0x85,
    0xa0, 0x55, 0x7a, 0x19, 0x29, 0x5b, 0x90, 0x4d, 0x86, 0x97, 0x00, 0x50, 0x60, 0xc3, 0xe1, 0x83,
    0x36, 0x74, 0xe3, 0x05, 0x00, 0x0d, 0x1e, 0xd4, 0x84, 0x05, 0xae, 0x79, 0x27, 0x58, 0x7b, 0x3d,
    0x89, 0x5a, 0xaa, 0x14, 0x39, 0x00, 0x40, 0x11, 0x89, 0xf7, 0x76, 0x94, 0xe7, 0x61, 0x0c, 0x00,
    0x03, 0x2a, 0x4e, 0x39, 0x43, 0x4b, 0x78, 0x3e, 0xce, 0x0a, 0x3a, 0x04, 0x23, 0x9b, 0x5e, 0x6b,
    0x00, 0xa0, 0xb6, 0x49, 0xc8, 0x0b, 0xa1, 0xa2, 0xab, 0x04, 0x00, 0x06, 0x35, 0x4c, 0x16, 0xd1,
    0x3e, 0xd3, 0x43, 0x48, 0x31, 0xfc, 0x4e, 0x17, 0x35, 0x4a, 0x16, 0x00, 0x04, 0x44, 0x0a, 0x27,
    0x9a, 0xeb, 0x29, 0x71, 0xf1, 0xff, 0x32, 0x7a, 0xa2, 0x32, 0xb4, 0x09, 0x2b, 0x82, 0xff, 0xbf,
    0xc4, 0x28, 0xf5, 0xe4, 0x08, 0x07, 0xd0, 0xff, 0xff, 0xff, 0xff, 0xff, 0xff, 0xff, 0xff, 0xff,
    0xff, 0xff, 0xff, 0xff, 0xff, 0xff, 0xff, 0xff, 0xff, 0xff, 0xff, 0xff, 0x0f, 0x00, 0x00, 0x40,
    0x93, 0xe2, 0xa1, 0xe6, 0x51, 0x67, 0x64, 0x07, 0x00, 0xfd, 0xa3, 0x97, 0x0b, 0x3c, 0x21, 0x0b,
    0x8c, 0x3b, 0x65, 0x86, 0x31, 0x32, 0x25, 0x0e, 0x37, 0x01, 0xf0, 0xab, 0x9e, 0x60, 0xc1, 0x6f,
    0xe4, 0xa0, 0x08, 0x00, 0x5e, 0x35, 0x39, 0x63, 0x0d, 0xce, 0x0b, 0xbc, 0x39, 0x8f, 0x9c, 0x51,
    0x89, 0xa3, 0x93, 0xe8, 0x00, 0x00, 0xa0, 0xa8, 0x9f, 0x5c, 0x39, 0xf0, 0x80, 0x04, 0x00, 0xab,
    0x6f, 0x6a, 0x3b, 0xb0, 0x69, 0x55, 0x32, 0x08, 0x15, 0x78, 0x30, 0x9b, 0x78, 0xa4, 0x1e, 0x00,
    0xf0, 0xda, 0x2a, 0x17, 0x71, 0x42, 0x43, 0xb0, 0x09, 0x00, 0x04, 0x5c, 0x1a, 0x47, 0x72, 0xcb,
    0x6f, 0xda, 0x88, 0xb5, 0x39, 0x05, 0x5b, 0x4a, 0x07, 0xab, 0x00, 0x70, 0xc2, 0xe0, 0x98, 0x95,
    0x25, 0x5d, 0x39, 0x0e, 0x00, 0x32, 0xba, 0x22, 0x66, 0x3e, 0x4b, 0x55, 0x57, 0xbe, 0x5d, 0xc2,
    0x72, 0xa2, 0x20, 0x72, 0x33, 0x00, 0x50, 0x7a, 0x20, 0x04, 0x28, 0x66, 0x03, 0xb6, 0x00, 0x80,
    0x11, 0x07, 0x11, 0x14, 0x77, 0x4b, 0x6b, 0xe5, 0x00, 0xf0, 0xa3, 0x11, 0xbc, 0xca, 0xd2, 0xaa,
    0x26, 0x07, 0xb5, 0xe9, 0x9b, 0x73, 0x78, 0x47, 0x73, 0x01, 0x00, 0x59, 0x69, 0x92, 0x80, 0x15,
    0x19, 0x4b, 0x3f, 0x00, 0xc0, 0xd7, 0x27, 0x1a, 0x10, 0xa6, 0xc6, 0x05, 0x0b, 0xe5, 0x54, 0xdd,
    0x30, 0x15, 0x33, 0xd9, 0x08, 0x00, 0x6d, 0xf8, 0xc2, 0xec, 0x51, 0x58, 0x10, 0x61, 0x00, 0x10,
    0x26, 0x68, 0xc1, 0x6f, 0x60, 0x05, 0xf5, 0x85, 0xe5, 0x56, 0xb4, 0x09, 0x49, 0xb7, 0xd4, 0x04,
    0x00, 0x5e, 0x9f, 0x90, 0xbd, 0x40, 0xae, 0x5a, 0x9e, 0x00, 0x50, 0xe6, 0xe4, 0xa1, 0xcb, 0x7a,
    0x45, 0x0a, 0x86, 0x7d, 0xd4, 0x76, 0x96, 0xe8, 0x33, 0x49, 0x08, 0x00, 0xad, 0x67, 0xb0, 0x8e,
    0x4a, 0x9d, 0x6e, 0xca, 0x00, 0xa0, 0xeb, 0x59, 0x05, 0x04, 0xd4, 0x7d, 0xcd, 0x03, 0x54, 0xc2,
    0x48, 0xd2, 0x66, 0x64, 0xe2, 0x06, 0x00, 0x17, 0xc4, 0x29, 0x04, 0x50, 0x74, 0x89, 0x94, 0x00,
    0x50, 0x48, 0xd8, 0xa3, 0x04, 0x89, 0xf8, 0x66, 0xf6, 0xc5, 0x11, 0xa4, 0x28, 0x02, 0x9d, 0xb6,
    0x05, 0x00, 0x3b, 0x4e, 0xfc, 0x3f, 0x0b, 0xa1, 0x0d, 0x36, 0x00, 0xc0, 0x67, 0x49, 0xd2, 0x70,
    0xfb, 0x7a, 0xac, 0xa2, 0xd6, 0x5b, 0x08, 0x78, 0x46, 0xf2, 0xc0, 0x04, 0xf0, 0x7e, 0xb9, 0x29,
    0xfc, 0x37, 0x3f, 0x24, 0x85, 0xff, 0xaf, 0x0e, 0x36, 0xaa, 0xf5, 0xff, 0xff, 0xff, 0xff, 0xff,
    0xff, 0xff, 0xff, 0xff, 0xff, 0xff, 0xff, 0xff, 0xff, 0xff, 0xff, 0xff, 0xff, 0xff, 0xff, 0xff,
    0x0f, 0xff, 0xff, 0xff, 0xff, 0xff, 0xff, 0xff, 0xff, 0xff, 0xff, 0xff, 0xff, 0xff, 0xff, 0xff,
    0xfe, 0x3c, 0x07, 0x60, 0x44, 0x3b, 0xff, 0xd0, 0xcb, 0x7b, 0x18, 0x0e, 0xd7, 0x32, 0x66, 0xe6,
    0x19, 0x4c, 0xd7, 0x1e, 0x41, 0x7f, 0x4a, 0xd9, 0xf4, 0x25, 0x16, 0x3b, 0x4a, 0x23, 0xcf, 0x58,
    0xfb, 0x90, 0xfe, 0x05, 0x80, 0x91, 0xc5, 0x03, 0xf7, 0xf9, 0xee, 0xbd, 0x34, 0xed, 0xc2, 0x1f,
    0x15, 0x0e, 0xf2, 0x22, 0x10, 0x1f, 0x1a, 0x43, 0x31, 0x26, 0x25, 0x0c, 0x13, 0x26, 0x0d, 0xfd,
    0x71, 0xff, 0xff, 0xff, 0xff, 0x7b, 0x7a, 0xde, 0x6c, 0x29, 0xc8, 0xfe, 0xff, 0xff, 0xff, 0x8b,
    0xbb, 0x5b, 0x42, 0x28, 0xff, 0xfb, 0xff, 0xff, 0xff, 0xed, 0x74, 0x5b, 0x47, 0x28, 0xa6, 0xfd,
    0xff, 0xff, 0xff, 0x6e, 0x7f, 0x4b, 0x43, 0x28, 0xc2, 0xff, 0xff, 0xff, 0xff, 0x0e, 0x9a, 0x88,
    0x78, 0x29, 0x65, 0xfe, 0xff, 0xff, 0xff, 0x4f, 0xdc, 0x31, 0x79, 0x29, 0x15, 0x01, 0x00, 0x00,
    0x00, 0x79, 0xef, 0xa7, 0x66, 0x29, 0x82, 0xfe, 0xff, 0xff, 0xff, 0x0d, 0x33, 0x7b, 0x74, 0x29,
    0xc3, 0xfe, 0xff, 0xff, 0xff, 0xa4, 0xc9, 0xf1, 0x6d, 0x29, 0xef, 0xfe, 0xff, 0xff, 0xff, 0xf9,
    0x10, 0x47, 0x72, 0x29, 0x00, 0xf7, 0xff, 0xff, 0xff, 0xb2, 0xc8, 0x56, 0x41, 0x28, 0x17, 0xff,
    0xff, 0xff, 0xff, 0x41, 0xa0, 0x63, 0x77, 0x29, 0x75, 0xfe, 0xff, 0xff, 0xff, 0x7e, 0x2c, 0x7d,
    0x79, 0x29, 0xd7, 0xfe, 0xff, 0xff, 0xff, 0x98, 0xf3, 0x13, 0x79, 0x29, 0xe1, 0xfa, 0xff, 0xff,
    0xff, 0xeb, 0x64, 0x22, 0x43, 0x28, 0xda, 0xfb, 0xff, 0xff, 0xff, 0x83, 0x86, 0x44, 0x4c, 0x28,
    0xfe, 0x2f, 0x5c, 0x00, 0xac, 0x1e, 0x7c, 0x45, 0x81, 0x6c, 0x88, 0x28, 0x59, 0x86, 0x45, 0x97,
    0x40, 0x63, 0x62, 0x17, 0x73, 0x91, 0xc0, 0xb5, 0x70, 0x53, 0x58, 0x74, 0x95, 0xe1, 0xb6, 0x22,
    0x18, 0xc4, 0xf3, 0xea, 0x55, 0x89, 0x46, 0x6e, 0xe5, 0x94, 0x2c, 0xc4, 0xe3, 0xed, 0xd7, 0xc6,
    0x74, 0x31, 0x82, 0x75, 0xe0, 0xeb, 0x92, 0xb5, 0x81, 0x47, 0x94, 0x95, 0x9f, 0x4b, 0x84, 0x70,
    0xe5, 0x3b, 0xe0, 0xe6, 0x09, 0x05, 0x72, 0xe1, 0x40, 0xab, 0x91, 0x15, 0x2c, 0xe4, 0xe4, 0x7a,
    0x06, 0x34, 0xd5, 0x62, 0x32, 0x15, 0x11, 0xf4, 0xaf, 0x17, 0x5b, 0x26, 0x79, 0x07, 0x88, 0xa9,
    0xd5, 0x70, 0xd7, 0xb2, 0xa7, 0x50, 0x8b, 0x90, 0xf2, 0x32, 0x07, 0x81, 0xa4, 0x31, 0xeb, 0xa6,
    0x24, 0xc4, 0x54, 0x95, 0xea, 0xd5, 0xdc, 0xc1, 0xb1, 0x4f, 0x3a, 0x99, 0x9d, 0x33, 0x33, 0x86,
    0xbb, 0xcd, 0xef, 0x43, 0xd8, 0x88, 0x35, 0x5c, 0x1a, 0x8c, 0xd1, 0x91, 0x19, 0x18, 0x8b, 0xd5,
    0xf2, 0x74, 0x31, 0x80, 0x76, 0x0c, 0x95, 0xb3, 0x0a, 0xf3, 0xf2, 0x62, 0xa0, 0x30, 0xf2, 0xb1,
    0x78, 0xc2, 0xa3, 0x24, 0xf1, 0x6f, 0x89, 0xc2, 0x44, 0x8c, 0x01, 0xb4, 0x64, 0xe7, 0xf7, 0xe5,
    0x40, 0xc6, 0x34, 0xb3, 0xb6, 0x23, 0x56, 0xbb, 0xf6, 0x61, 0xea, 0xfd, 0x5f, 0xb0, 0x69, 0xc4,
    0x2b, 0x46, 0x34, 0xa7, 0x57, 0x82, 0x30, 0x9b, 0x71, 0x1e, 0x98, 0xb6, 0x62, 0x5b, 0x5b, 0xee,
    0x55, 0x96, 0x41, 0xa0, 0x80, 0xf3, 0xa2, 0x30, 0x34, 0xd6, 0x82, 0x53, 0xd7, 0x26, 0x02, 0x56,
    0x94, 0xb7, 0xb4, 0xca, 0x51, 0x66, 0x48, 0xf8, 0x36, 0xd4, 0xeb, 0xa0, 0x56, 0xa7, 0x03, 0x13,
    0x7a, 0x31, 0xf6, 0x65, 0x34, 0x67, 0x06, 0xb4, 0x90, 0x17, 0xbb, 0xb4, 0xb5, 0x55, 0xf0, 0x53,
    0xda, 0x76, 0xfa, 0xc3, 0xf4, 0xd1, 0x83, 0x6d, 0x93, 0xc2, 0x33, 0x82, 0xd6, 0xe6, 0xc7, 0x85,
    0x01, 0x34, 0x24, 0xc5, 0xc6, 0x07, 0x95, 0xe0, 0xb8, 0x96, 0xf3, 0x82, 0x73, 0x46, 0x3a, 0x60,
    0x0a, 0x55, 0xe6, 0xf0, 0xe7, 0xc7, 0x4f, 0xc9, 0x11, 0x5b, 0x8a, 0xc1, 0x36, 0x73, 0x66, 0xaa,
    0x46, 0x76, 0xd1, 0x02, 0xc1, 0x57, 0xd0, 0x61, 0x14, 0x55, 0x5a, 0x10, 0x24, 0x74, 0x22, 0x66,
    0x97, 0xb8, 0xd0, 0x51, 0xc0, 0xf9, 0xef, 0x10, 0x52, 0xdb, 0xf0, 0xb1, 0x84, 0xda, 0xc3, 0x64,
    0xd0, 0xc5, 0x76, 0xca, 0xe4, 0xba, 0x96, 0x42, 0x84, 0x25, 0xd0, 0xc5, 0x35, 0xc6, 0xf0, 0x12,
    0x06, 0x26, 0x32, 0x10, 0x49, 0x2f, 0x39, 0xc9, 0x29, 0x11, 0xb1, 0x80, 0x94, 0x34, 0x11, 0xe2,
    0xd3, 0x63, 0x1a, 0x21, 0x93, 0xb3, 0xa8, 0xa8, 0x44, 0x81, 0x07, 0xb4, 0x01, 0xf5, 0x43, 0xe6,
    0x9a, 0x37, 0x19, 0x79, 0x56, 0x98, 0x20, 0x63, 0x14, 0x1c, 0xe0, 0xb0, 0x71, 0x04, 0x41, 0x99,
    0x94, 0x12, 0x1a, 0x84, 0xd4, 0x54, 0x00, 0xc7, 0x17, 0xb0, 0x3c, 0x55, 0xd4, 0xb3, 0x95, 0xb3,
    0xc6, 0x8b, 0x2a, 0xd0, 0xb5, 0xc9, 0xf3, 0xb0, 0x67, 0xf3, 0x05, 0xa1, 0x19, 0x74, 0x94, 0xb4,
    0xd0, 0x43, 0x7d, 0x13, 0x11, 0xe9, 0x6e, 0x8a, 0x66, 0x08, 0xf2, 0x7c, 0x11, 0xb8, 0xe7, 0x40,
    0xb9, 0xa0, 0xb6, 0xc8, 0xf1, 0x20, 0x27, 0x21, 0x78, 0x1b, 0xb8, 0x36, 0x1a, 0x2a, 0xf8, 0x2f,
    0x93, 0x2a, 0xb9, 0xb3, 0xb0, 0x99, 0x89, 0xe0, 0xc1, 0x71, 0xd5, 0x53, 0xf6, 0xef, 0x54, 0x37,
    0x66, 0x02, 0x63, 0xa8, 0x40, 0xa7, 0x32, 0xa6, 0x56, 0xfc, 0x44, 0x17, 0x63, 0x42, 0x5c, 0xb2,
    0xe7, 0xeb, 0x83, 0x64, 0x76, 0x63, 0xf9, 0x13, 0x4a, 0x44, 0x03, 0x83, 0xb5, 0x0b, 0x75, 0x67,
    0xb0, 0x66, 0xe3, 0x16, 0xb5, 0x38, 0x88, 0xb2, 0xbe, 0x51, 0x94, 0xd7, 0xd9, 0xd0, 0xa8, 0x05,
    0x68, 0x50, 0x14, 0x67, 0x20, 0x23, 0xa5, 0x83, 0x73, 0x91, 0x62, 0x36, 0x91, 0xc1, 0x11, 0x75,
    0xb0, 0x46, 0x16, 0x64, 0x04, 0x16, 0xe0, 0x65, 0x18, 0x44, 0x10, 0x65, 0x34, 0x67, 0xb1, 0x52,
    0x64, 0x93, 0x78, 0x57, 0xa7, 0xc5, 0x5f, 0xe1, 0x2f, 0x51, 0x84, 0xf8, 0x77, 0x7b, 0xc6, 0xfa,
    0xdf, 0xd3, 0xd9, 0x32, 0xc0, 0xf6, 0x47, 0x9c, 0x4f, 0x00, 0xd5, 0xb2, 0x1a, 0x73, 0x82, 0x43,
    0xf9, 0xd3, 0xe4, 0x41, 0x20, 0xcd, 0x10, 0x76, 0x36, 0xb5, 0x0b, 0x02, 0x16, 0x11, 0x20, 0x11,
    0x96, 0xd2, 0x27, 0x35, 0x39, 0x54, 0x13, 0xe6, 0xb1, 0x36, 0x69, 0xc3, 0x27, 0xf5, 0xbf, 0xb9,
    0xd0, 0xbc, 0xe0, 0x93, 0xd6, 0xda, 0x90, 0xd2, 0x28, 0x9a, 0x37, 0xb0, 0xbd, 0xd5, 0x39, 0x40,
    0x27, 0xa0, 0xe6, 0x76, 0xe8, 0x95, 0x6a, 0x46, 0xd2, 0xfb, 0x0b, 0x83, 0xa4, 0xf0, 0x70, 0x93,
    0x17, 0x6c, 0xc6, 0x46, 0x80, 0x42, 0x22, 0x94, 0xb6, 0x95, 0xd2, 0xe1, 0x67, 0x22, 0x54, 0x05,
    0x94, 0x22, 0x05, 0x59, 0xc0, 0xf1, 0x60, 0x63, 0x60, 0x26, 0x8a, 0x30, 0x9a, 0x86, 0x62, 0x46,
    0x9c, 0x84, 0x01, 0x03, 0xe5, 0x40, 0x87, 0x48, 0x38, 0xa6, 0xed, 0x13, 0xfd, 0xb4, 0x60, 0x68,
    0xd4, 0x12, 0x11, 0x6a, 0xd9, 0xf7, 0x91, 0xf4, 0x78, 0x00, 0x15, 0x71, 0x60, 0x56, 0x70, 0xff,
    0x34, 0xc7, 0xc3, 0x18, 0x84, 0x77, 0x98, 0x02, 0x15, 0xb7, 0x84, 0x64, 0x32, 0xec, 0x53, 0x49,
    0x80, 0x71, 0x37, 0x62, 0xf9, 0x21, 0x52, 0x88, 0xb6, 0x79, 0x7d, 0xf5, 0xd1, 0x68, 0xfa, 0xb1,
    0xa7, 0x26, 0x75, 0xf6, 0x54, 0x3d, 0x74, 0x36, 0x22, 0x64, 0xd2, 0x22, 0x8c, 0x0b, 0x54, 0xf8,
    0xae, 0x98, 0x27, 0xb5, 0x6c, 0xc1, 0x39, 0xf2, 0xc7, 0xd0, 0x92, 0x36, 0xb2, 0x00, 0x0b, 0x0a,
    0x41, 0xe8, 0xb1, 0x8c, 0x28, 0x84, 0x7b, 0x39, 0x4a, 0x43, 0x97, 0xfb, 0x34, 0x06, 0xfc, 0x93,
    0xaa, 0x28, 0xb6, 0xd8, 0x24, 0x89, 0x69, 0x50, 0x49, 0x74, 0x51, 0x57, 0xe6, 0xd9, 0x04, 0x39,
    0xd2, 0xa1, 0xc5, 0xf6, 0x20, 0x53, 0x5b, 0xa7, 0xf1, 0xf3, 0x87, 0xc3, 0x20, 0x13, 0x30, 0x40,
    0xc7, 0xb8, 0xe0, 0x95, 0x60, 0x57, 0x97, 0xb7, 0x80, 0x90, 0x14, 0x04, 0x41, 0x98, 0x84, 0x35,
    0xde, 0xc2, 0xae, 0x87, 0x03, 0x16, 0xe2, 0xb6, 0x97, 0xa3, 0x13, 0x03, 0xd1, 0xc9, 0x46, 0xb6,
    0xe8, 0xbd, 0x15, 0xb5, 0x63, 0x86, 0x94, 0x21, 0x66, 0x04, 0xa1, 0xd2, 0xd8, 0xb5, 0xc1, 0x37,
    0x21, 0x24, 0x21, 0x75, 0x79, 0xd3, 0xbc, 0x92, 0xf0, 0x6f, 0x42, 0x8c, 0x53, 0xc2, 0x26, 0xf6,
    0xb2, 0xc3, 0x07, 0x64, 0xf4, 0xcd, 0x31, 0x11, 0xe6, 0xaa, 0x45, 0x40, 0x03, 0x64, 0x34, 0xbd,
    0x8e, 0xb1, 0xa4, 0xb3, 0x31, 0x84, 0xc1, 0x39, 0xd4, 0x03, 0xbb, 0x12, 0xd9, 0xc8, 0x50, 0xb6,
    0x84, 0x9b, 0x01, 0xb4, 0x47, 0xea, 0xf2, 0x7f, 0x48, 0x42, 0x1a, 0x31, 0xb8, 0xd1, 0x43, 0x79,
    0x37, 0xe2, 0xd7, 0xec, 0x28, 0x19, 0x0d, 0x73, 0x67, 0x83, 0x57, 0xb5, 0x57, 0x16, 0x60, 0x44,
    0xe1, 0x42, 0x03, 0x0a, 0xf8, 0xf0, 0xec, 0x73, 0xbc, 0x64, 0x6d, 0x75, 0x2d, 0x10, 0x1b, 0x43,
    0x57, 0x19, 0xab, 0xf3, 0x85, 0x1b, 0x73, 0xeb, 0xa0, 0x82, 0xb2, 0xc5, 0xf5, 0xb2, 0x64, 0xd5,
    0x02, 0x79, 0xa4, 0x84, 0xe0, 0x56, 0xc1, 0x45, 0x76, 0xfb, 0x3a, 0x85, 0xf4, 0xc1, 0x68, 0x5c,
    0xd7, 0x16, 0xb8, 0xd3, 0xfe, 0x5c, 0xfd, 0xb3, 0xd0, 0x12, 0x01, 0x37, 0x16, 0x59, 0x45, 0xe6,
    0xf1, 0xc1, 0xe2, 0x96, 0xd8, 0xa2, 0x8b, 0x1f, 0x58, 0x07, 0x48, 0xd7, 0x31, 0x39, 0x1a, 0xf4,
    0xeb, 0xc9, 0x97, 0xa1, 0x48, 0x33, 0xe6, 0xa3, 0x22, 0x15, 0x23, 0xb7, 0x52, 0xcd, 0xf0, 0x7a,
    0xd3, 0xa5, 0x74, 0x35, 0xca, 0x48, 0x36, 0xe0, 0xba, 0x53, 0x32, 0xd4, 0x46, 0x06, 0xd1, 0x91,
    0x3b, 0x0a, 0x4b, 0xd9, 0x0e, 0xf2, 0xe5, 0xe2, 0xa8, 0x51, 0xc7, 0xd0, 0x01, 0x12, 0xa6, 0xc8,
    0xd8, 0x31, 0xc1, 0xb6, 0xe4, 0x09, 0xd3, 0xb4, 0x80, 0xd8, 0xdc, 0x36, 0x14, 0xbc, 0xa5, 0xb9,
    0xbd, 0x78, 0xd5, 0x18, 0x93, 0x57, 0xe1, 0xaf, 0x84, 0xa7, 0xf0, 0xa8, 0x5a, 0xf1, 0x27, 0x66,
    0xc0, 0xd9, 0xd8, 0x04, 0xd8, 0x1c, 0x17, 0x68, 0x72, 0xa1, 0xb7, 0x83, 0x26, 0x91, 0x6c, 0xd3,
    0x46, 0x44, 0xa4, 0x50, 0x57, 0x11, 0xd5, 0xc7, 0xa5, 0x45, 0xf4, 0x40, 0x23, 0x74, 0x85, 0x78,
    0x43, 0x84, 0xc2, 0xc5, 0x65, 0xe4, 0x87, 0xd3, 0x36, 0x04, 0xa1, 0x84, 0x26, 0xf1, 0x52, 0x14,
    0xa4, 0xdc, 0xfa, 0xf3, 0xd2, 0xc8, 0x75, 0x67, 0x9b, 0x49, 0x61, 0x24, 0x81, 0x26, 0x14, 0x56,
    0x26, 0xed, 0x82, 0xc2, 0x36, 0x17, 0x75, 0xbd, 0x83, 0x6a, 0x2c, 0x44, 0x07, 0x33, 0x25, 0x12,
    0x40, 0x31, 0x54, 0x25, 0x62, 0x95, 0x90, 0x90, 0xc1, 0xa2, 0xd1, 0xd1, 0x27, 0x53, 0x83, 0xc3,
    0x02, 0x72, 0x40, 0x24, 0xa5, 0x51, 0x59, 0x85, 0x75, 0x17, 0xc5, 0x62, 0xa3, 0x52, 0x19, 0x93,
    0x10, 0x58, 0x12, 0xa9, 0x93, 0x70, 0x44, 0xf0, 0xf5, 0xd3, 0xa6, 0xb2, 0x48, 0x91, 0x2a, 0xba,
    0x52, 0x85, 0xc3, 0x18, 0x18, 0x14, 0xb6, 0x3a, 0xa3, 0x30, 0x31, 0x1a, 0x84, 0x55, 0xb1, 0x95,
    0x58, 0x50, 0x3c, 0x35, 0x6b, 0xf3, 0xbc, 0x30, 0x46, 0xd1, 0x2a, 0xd8, 0x42, 0xc4, 0x92, 0xf8,
    0x00, 0x67, 0x27, 0x33, 0xe9, 0x41, 0x9d, 0x88, 0x42, 0xbd, 0x63, 0xf4, 0x83, 0x96, 0x6a, 0xe5,
    0xc3, 0x85, 0x38, 0x0a, 0x91, 0x31, 0x92, 0x96, 0xd3, 0x64, 0xc2, 0x80, 0xc5, 0xa4, 0xc2, 0x45,
    0xc3, 0xe7, 0x29, 0x86, 0x06, 0x62, 0x66, 0x82, 0x36, 0x31, 0x33, 0xca, 0x86, 0x27, 0xf0, 0xd5,
    0xe3, 0x48, 0x45, 0x46, 0xe1, 0x23, 0xe2, 0x63, 0xa0, 0x96, 0x04, 0xa5, 0x72, 0x74, 0xd1, 0xb7,
    0xa0, 0x99, 0x04, 0xf7, 0x9f, 0xa6, 0x69, 0xdc, 0x2b, 0xf5, 0xaf, 0x23, 0x6b, 0x55, 0x20, 0xc5,
    0x20, 0xe9, 0x33, 0x91, 0x05, 0x82, 0x52, 0x50, 0x9c, 0x94, 0x8a, 0x36, 0xe2, 0xf8, 0x9f, 0x30,
    0x56, 0x87, 0x81, 0xe0, 0x97, 0x7c, 0xd6, 0x39, 0x03, 0x12, 0xc0, 0x28, 0xa9, 0xf4, 0x2f, 0x42,
    0x60, 0x97, 0x65, 0xf0, 0xf9, 0xd1, 0xf8, 0xe7, 0x70, 0x26, 0x23, 0x28, 0x69, 0x40, 0x93, 0x20,
    0xd0, 0x0c, 0x21, 0xb5, 0x12, 0x2e, 0x2e, 0x29, 0x93, 0x57, 0xab, 0xc5, 0x29, 0x72, 0x66, 0x47,
    0xa1, 0x75, 0x23, 0xa3, 0x58, 0xbc, 0x94, 0x46, 0x43, 0x72, 0x3b, 0xd5, 0x79, 0xf1, 0x5b, 0xab,
    0x81, 0x14, 0x98, 0x85, 0x42, 0xa7, 0x1c, 0x47, 0x6c, 0x90, 0xe1, 0x46, 0xc0, 0x4b, 0x36, 0x52,
    0x33, 0x31, 0x0b, 0x91, 0x01, 0x67, 0xc7, 0xb3, 0xf4, 0xa4, 0x46, 0x34, 0x32, 0xa6, 0x22, 0x61,
    0x31, 0x87, 0x31, 0x15, 0x61, 0x05, 0x81, 0x45, 0x12, 0xe6, 0xad, 0x54, 0xfb, 0xd1, 0x1c, 0x03,
    0x9d, 0xd6, 0x15, 0xfb, 0xaf, 0x50, 0x34, 0x77, 0x94, 0x01, 0x81, 0x92, 0x14, 0x5b, 0x11, 0xb5,
    0xf2, 0xe1, 0x03, 0xc4, 0x73, 0x11, 0xe2, 0xb5, 0x40, 0xd1, 0x05, 0xc3, 0x51, 0x72, 0xc8, 0x74,
    0x50, 0x71, 0x93, 0x98, 0x59, 0x3c, 0xb1, 0x18, 0x74, 0x01, 0x87, 0xd3, 0xd2, 0x52, 0xa4, 0x30,
    0xdd, 0x41, 0x97, 0x77, 0xf0, 0xff, 0xff, 0xff, 0xff, 0xff, 0xff, 0xff, 0xff, 0xff, 0xff, 0xff,
    0x5b, 0xff, 0xff, 0xff, 0xff, 0x47, 0xef, 0x2e, 0x71, 0x29, 0xfe, 0xfd, 0xff, 0xff, 0xff, 0x3a,
    0x90, 0x4f, 0x7f, 0x29, 0x4c, 0xfd, 0xff, 0xff, 0xff, 0x97, 0xfa, 0x37, 0x45, 0x28, 0xf7, 0xfd,
    0xff, 0xff, 0xff, 0xf3, 0x18, 0x7b, 0x44, 0x28, 0xb5, 0xfd, 0xff, 0xff, 0xff, 0x0b, 0x8d, 0xa9,
    0x5b, 0x28, 0x34, 0xfa, 0xff, 0xff, 0xff, 0xdf, 0xf9, 0x52, 0x71, 0x29, 0x6d, 0x00, 0x00, 0x00,
    0x00, 0x65, 0xcc, 0xc7, 0x7a, 0x29, 0x3d, 0x01, 0x00, 0x00, 0x00, 0xba, 0x4e, 0xdb, 0x74, 0x29,
    0xfd, 0xfa, 0xff, 0xff, 0xff, 0xeb, 0x87, 0x13, 0x7c, 0x29, 0xf5, 0xf5, 0xff, 0xff, 0xff, 0x61,
    0x05, 0xa0, 0x78, 0x29, 0x7e, 0xff, 0xff, 0xff, 0xff, 0x39, 0xba, 0xbb, 0x64, 0x28, 0x94, 0xff,
    0xff, 0xff, 0xff, 0x38, 0x5c, 0x50, 0x57, 0x28, 0x5e, 0xfa, 0xff, 0xff, 0xff, 0x93, 0x58, 0x16,
    0x54, 0x28, 0xbb, 0xfd, 0xff, 0xff, 0xff, 0x75, 0x75, 0x20, 0x7e, 0x29, 0xbd, 0x00, 0x00, 0x00,
    0x00, 0xae, 0x2c, 0x7d, 0x70, 0x29, 0x8f, 0x00, 0x00, 0x00, 0x00, 0xdd, 0x04, 0x5c, 0x42, 0x28,
    0xb7, 0xfe, 0xff, 0xff, 0xff, 0x2d, 0xa6, 0xce, 0x40, 0x28, 0x61, 0xf3, 0xff, 0xff, 0xff, 0x57,
    0x70, 0x5a, 0x40, 0x28, 0x25, 0xf9, 0xff, 0xff, 0xff, 0x78, 0xe0, 0xbc, 0x4b, 0x28, 0x6b, 0xfe,
    0xff, 0xff, 0xff, 0x5c, 0x48, 0x5a, 0x6b, 0x29, 0x68, 0x00, 0x00, 0x00, 0x00, 0x07, 0xb4, 0xe1,
    0x69, 0x29, 0x2e, 0xff, 0xff, 0xff, 0xff, 0x9f, 0x06, 0x0b, 0x73, 0x29, 0x70, 0xfb, 0xff, 0xff,
    0xff, 0xa2, 0xe9, 0x24, 0x41, 0x28, 0xf7, 0x03, 0x00, 0x00, 0x00, 0x92, 0xdb, 0x5e, 0x67, 0x29,
    0xd8, 0xff, 0xff, 0xff, 0xff, 0x11, 0x1c, 0xe0, 0x53, 0x28, 0x7a, 0x00, 0x00, 0x00, 0x00, 0x7e,
    0x63, 0x4d, 0x42, 0x28, 0x6a, 0xff, 0xff, 0xff, 0xff, 0xb7, 0x39, 0x8f, 0x76, 0x29, 0x3d, 0xfc,
    0xff, 0xff, 0xff, 0x38, 0xce, 0x9c, 0x40, 0x28, 0x1d, 0xfb, 0xff, 0xff, 0xff, 0x49, 0x68, 0xfb,
    0x6f, 0x29, 0xbc, 0xfd, 0xff, 0xff, 0xff, 0xf4, 0x32, 0x1b, 0x7e, 0x29, 0x68, 0x00, 0x00, 0x00,
    0x00, 0xa3, 0x15, 0x82, 0x4b, 0x28, 0xec, 0xfe, 0xff, 0xff, 0xff, 0xb6, 0xf0, 0xfa, 0x64, 0x29,
    0xfe, 0x5f, 0x5c, 0x00, 0x9c, 0x99, 0x14, 0xd8, 0xd7, 0xae, 0xc0, 0x85, 0xa4, 0xf6, 0x55, 0xcc,
    0x05, 0x77, 0x94, 0xb1, 0xb3, 0xe5, 0x32, 0x41, 0xe0, 0x81, 0xa7, 0x07, 0x68, 0x72, 0x71, 0x32,
    0xc5, 0xf0, 0x85, 0x6b, 0x14, 0x27, 0xf0, 0x22, 0x70, 0x41, 0x95, 0xc6, 0x62, 0x9b, 0x78, 0x6c,
    0xec, 0x04, 0xb2, 0xb4, 0xcb, 0x69, 0xc7, 0x1c, 0x30, 0x98, 0x41, 0x5c, 0x38, 0x7a, 0x20, 0x14,
    0xd6, 0xd0, 0x93, 0x99, 0x97, 0x84, 0x42, 0xca, 0x47, 0x83, 0x21, 0x62, 0x5c, 0x41, 0x62, 0x27,
    0x37, 0xf3, 0xdf, 0xd5, 0x87, 0x65, 0xe3, 0x85, 0xc6, 0x06, 0xc8, 0xba, 0xc4, 0xe7, 0x24, 0xe0,
    0xd2, 0x00, 0x83, 0x21, 0xc0, 0xc2, 0xb0, 0x14, 0x82, 0xf1, 0xb5, 0xf2, 0xb0, 0x78, 0xf1, 0x50,
    0xe7, 0xa7, 0x89, 0x7c, 0x02, 0x22, 0xe1, 0x01, 0xf4, 0x59, 0xe6, 0xf1, 0x42, 0x55, 0x98, 0xf9,
    0xcf, 0xb7, 0x01, 0xf5, 0xf5, 0xf6, 0xf9, 0x45, 0xe7, 0x3f, 0x6d, 0x53, 0x49, 0x74, 0x99, 0x55,
    0xb9, 0x10, 0xab, 0xc8, 0x51, 0x52, 0x28, 0x64, 0x05, 0x9a, 0xb3, 0x33, 0x32, 0x82, 0x32, 0x92,
    0x34, 0xb2, 0x07, 0xfb, 0xf2, 0xb3, 0xc2, 0x61, 0xf0, 0x4f, 0xc6, 0xa5, 0xc1, 0x40, 0x60, 0x62,
    0xf8, 0x05, 0xe2, 0x94, 0xd1, 0xd4, 0x90, 0x77, 0xc9, 0x49, 0xf8, 0xa1, 0x46, 0x97, 0x38, 0xce,
    0xaa, 0xd9, 0xd8, 0xd2, 0x34, 0x13, 0x10, 0xc3, 0xe2, 0x55, 0x59, 0x0c, 0x4c, 0x93, 0xd1, 0x3b,
    0x27, 0x53, 0x32, 0x28, 0xe1, 0x96, 0x73, 0x00, 0x21, 0xd1, 0x74, 0xea, 0xe3, 0xb1, 0x73, 0xf0,
    0x90, 0x5d, 0xa2, 0xd7, 0x7d, 0x03, 0x83, 0x10, 0x33, 0xa1, 0x90, 0x22, 0x03, 0x45, 0x83, 0x4a,
    0xe6, 0x0a, 0xa3, 0xfc, 0x04, 0x62, 0xc4, 0xab, 0xc7, 0x60, 0x92, 0xa4, 0x68, 0x34, 0x93, 0xd6,
    0x99, 0xf5, 0xbb, 0xe4, 0xf7, 0x82, 0x5c, 0x20, 0xf2, 0xf7, 0xa4, 0x64, 0xe2, 0x66, 0xfa, 0x13,
    0x21, 0x93, 0x97, 0x99, 0xe4, 0x66, 0xd6, 0x90, 0xe1, 0xbf, 0xba, 0x22, 0xc0, 0xf3, 0x8f, 0x52,
    0x16, 0x1b, 0x79, 0x54, 0x79, 0xd4, 0xd0, 0x82, 0x27, 0x52, 0x11, 0x18, 0x33, 0x63, 0x9b, 0x4f,
    0xf9, 0x86, 0x86, 0xe8, 0xe2, 0x61, 0x01, 0xa2, 0x60, 0x52, 0xa2, 0xf5, 0x7f, 0x64, 0xa9, 0x8b,
    0x44, 0x72, 0xf9, 0xa3, 0xb6, 0x32, 0x76, 0xe0, 0x29, 0x96, 0xab, 0xa5, 0x1a, 0x66, 0x7b, 0xb1,
    0x61, 0xd6, 0x31, 0xd0, 0x36, 0x77, 0x00, 0x41, 0xe1, 0x76, 0x60, 0xf0, 0x13, 0xc5, 0xc5, 0x12,
    0xb3, 0x59, 0xa0, 0xf0, 0x71, 0x58, 0x24, 0x50, 0x80, 0x35, 0xb2, 0x97, 0xc3, 0x5a, 0x41, 0x7b,
    0x94, 0x83, 0x2c, 0x37, 0xd6, 0x3c, 0xa0, 0x49, 0x30, 0xe5, 0xc2, 0xc5, 0x60, 0xf2, 0xe6, 0x34,
    0x53, 0xd6, 0x81, 0x90, 0xf6, 0xd3, 0xe8, 0x87, 0x22, 0x11, 0xb7, 0x2d, 0x93, 0x56, 0xd4, 0xf4,
    0x11, 0xf7, 0x98, 0x64, 0x48, 0x26, 0x47, 0x67, 0x16, 0xf2, 0xa3, 0x86, 0x30, 0xb7, 0x09, 0xd3,
    0x13, 0xc7, 0x91, 0xb6, 0xf7, 0x16, 0x17, 0x33, 0x77, 0xbc, 0x72, 0x66, 0x97, 0xf1, 0x74, 0x86,
    0x67, 0xb0, 0x31, 0x56, 0x31, 0x02, 0xb7, 0xeb, 0x37, 0x01, 0xdb, 0xd3, 0xc8, 0xc1, 0x62, 0x61,
    0x21, 0x1d, 0xe8, 0x93, 0x31, 0x98, 0xb2, 0x43, 0x29, 0xd1, 0xfb, 0xc6, 0xe6, 0x02, 0x6a, 0x75,
    0xe5, 0x31, 0xb8, 0x14, 0xd3, 0xb0, 0x70, 0xad, 0x03, 0xc4, 0x20, 0xc3, 0xe6, 0x98, 0xa5, 0x80,
    0x68, 0x21, 0x7a, 0x21, 0xf3, 0xf1, 0x76, 0x61, 0x00, 0x84, 0xb1, 0x21, 0xf1, 0x21, 0xd9, 0xc0,
    0x65, 0x6a, 0x99, 0x56, 0x79, 0x09, 0x79, 0x84, 0x64, 0xb0, 0x10, 0x07, 0x79, 0x57, 0xa5, 0x28,
    0x62, 0xf4, 0x3a, 0x17, 0x42, 0x00, 0x15, 0x97, 0xc6, 0x09, 0xe6, 0x59, 0x5b, 0x05, 0x48, 0xa2,
    0x49, 0x38, 0xa6, 0x26, 0x6b, 0x65, 0x6f, 0x73, 0x35, 0x21, 0xb4, 0x24, 0xd4, 0x9a, 0xc8, 0xea,
    0x65, 0x13, 0x14, 0x50, 0x7d, 0x94, 0x93, 0x60, 0xb1, 0xf2, 0x00, 0xc4, 0x40, 0x21, 0x32, 0x00,
    0x43, 0x59, 0x51, 0x13, 0x8e, 0x37, 0x15, 0x14, 0x33, 0xe3, 0x14, 0x41, 0x01, 0x76, 0xd5, 0x5a,
    0x2a, 0xde, 0x47, 0x43, 0x6d, 0xa8, 0xd2, 0x51, 0x34, 0x08, 0x94, 0x11, 0xc7, 0x85, 0x17, 0x93,
    0xb6, 0x64, 0x64, 0x00, 0xd3, 0x30, 0x17, 0xc0, 0x3c, 0x28, 0x85, 0xf4, 0x62, 0x57, 0x63, 0x36,
    0x65, 0x34, 0xa7, 0xd3, 0x12, 0x48, 0x65, 0x50, 0xd2, 0x58, 0x92, 0xd1, 0xf2, 0x33, 0x26, 0x2b,
    0x9f, 0x35, 0xc7, 0x79, 0x5a, 0x6d, 0x00, 0x77, 0xd2, 0x17, 0x80, 0x88, 0xca, 0x33, 0x67, 0x82,
    0x1a, 0x0b, 0x6c, 0x24, 0x94, 0x73, 0x3b, 0xb6, 0xe8, 0x9c, 0x6a, 0xa0, 0xb8, 0xe6, 0x09, 0x5e,
    0x34, 0xd9, 0x52, 0xb3, 0xf0, 0xc3, 0xc0, 0x46, 0x72, 0x74, 0x63, 0x43, 0x43, 0xf6, 0xa7, 0x78,
    0xf2, 0xd0, 0xd7, 0x07, 0x51, 0x31, 0x85, 0xc1, 0xf2, 0x53, 0x10, 0xc2, 0xb1, 0x36, 0x4b, 0x26,
    0x3b, 0xd7, 0xf8, 0xbf, 0x27, 0x64, 0xd4, 0x84, 0xd9, 0x66, 0xc6, 0xd4, 0x1d, 0xf4, 0x75, 0xd7,
    0xb7, 0x45, 0x40, 0x43, 0xd4, 0x31, 0x2d, 0x5b, 0x14, 0xf4, 0xca, 0xb1, 0xad, 0xc9, 0x47, 0x84,
    0x94, 0x30, 0x83, 0x6d, 0x6a, 0xb7, 0x33, 0xbb, 0xb7, 0x57, 0x00, 0xa7, 0x70, 0xb8, 0x30, 0x7a,
    0xe1, 0xb7, 0xd3, 0xd7, 0xe0, 0x40, 0x94, 0xa0, 0x72, 0x83, 0x16, 0x83, 0x90, 0x5a, 0x14, 0x5e,
    0x5c, 0x13, 0x18, 0x89, 0x9b, 0x73, 0x01, 0x57, 0xb7, 0xb5, 0xc4, 0x11, 0x24, 0x85, 0xb5, 0x80,
    0x59, 0x9d, 0xaa, 0xf6, 0xb4, 0x67, 0xb0, 0xd0, 0xb9, 0x82, 0xc7, 0x01, 0x14, 0xa3, 0xe2, 0xbf,
    0x46, 0x8b, 0x03, 0x1b, 0x4c, 0x00, 0x52, 0xb2, 0xfa, 0x01, 0x95, 0x00, 0x64, 0xf9, 0x40, 0x96,
    0x57, 0x13, 0xe3, 0xe6, 0x00, 0x13, 0x94, 0xd1, 0xa6, 0x22, 0x70, 0x44, 0x88, 0xf2, 0x68, 0x46,
    0x46, 0xe5, 0x64, 0x32, 0x71, 0xd0, 0x84, 0xe2, 0x9c, 0xd3, 0x3b, 0x82, 0x98, 0xc6, 0x14, 0x90,
    0xc5, 0x72, 0x26, 0x68, 0x61, 0x14, 0xc5, 0xe7, 0xe4, 0x45, 0x71, 0xa4, 0x64, 0x12, 0xe9, 0xb3,
    0x33, 0xd2, 0x44, 0x2a, 0x84, 0xb4, 0xf2, 0x30, 0x84, 0xb2, 0x10, 0xb1, 0x63, 0xd2, 0x13, 0x10,
    0x41, 0xb6, 0xe2, 0x71, 0x38, 0x54, 0xc4, 0xc5, 0x73, 0x81, 0xf0, 0x85, 0xe5, 0xf4, 0xdf, 0xb4,
    0x5f, 0x38, 0x92, 0x74, 0xc4, 0x16, 0x83, 0x73, 0x3a, 0xeb, 0x28, 0xc6, 0xe6, 0x11, 0x24, 0x54,
    0xb4, 0x55, 0x37, 0xb6, 0x38, 0x8c, 0xb3, 0xc1, 0x58, 0x67, 0xe2, 0xd8, 0xd2, 0xb1, 0x81, 0xbc,
    0xd5, 0x36, 0xa4, 0x65, 0x39, 0x91, 0x71, 0x96, 0x32, 0x3b, 0xa0, 0xa2, 0xe1, 0x72, 0xd1, 0xf2,
    0xf4, 0x0f, 0x21, 0xd3, 0x26, 0x23, 0x00, 0x08, 0x52, 0xd4, 0x85, 0x60, 0x31, 0x93, 0xcc, 0xf9,
    0x71, 0xb5, 0x11, 0x92, 0xc3, 0xe3, 0x02, 0xf5, 0x37, 0x42, 0xfa, 0x7f, 0x61, 0x64, 0xca, 0x16,
    0x98, 0x96, 0x7b, 0x76, 0x61, 0xd5, 0xc4, 0xe3, 0x3f, 0x88, 0x61, 0xe2, 0xd0, 0xc1, 0x32, 0x50,
    0x10, 0xef, 0x0b, 0x35, 0x40, 0x03, 0x92, 0x90, 0xd0, 0x21, 0xa0, 0x72, 0x72, 0x26, 0xc4, 0xe2,
    0x14, 0x39, 0xa1, 0x91, 0x85, 0x65, 0x76, 0x44, 0xa3, 0xc1, 0x00, 0x17, 0x27, 0xe8, 0xd3, 0xf3,
    0x73, 0x90, 0x78, 0x21, 0x23, 0x05, 0x48, 0xb7, 0x45, 0x67, 0xc0, 0xc9, 0xc6, 0xf5, 0x71, 0xc7,
    0x13, 0xb1, 0xfc, 0x14, 0xf6, 0x63, 0x46, 0xa7, 0x39, 0x86, 0xf5, 0x22, 0x21, 0xf8, 0xe8, 0x89,
    0x81, 0xb9, 0x82, 0xb9, 0xdb, 0xf2, 0x41, 0x73, 0x6a, 0x90, 0x02, 0xe3, 0x92, 0x40, 0xc0, 0xd4,
    0xc8, 0x05, 0x58, 0xa8, 0x65, 0x93, 0xa3, 0x83, 0xc0, 0x92, 0x68, 0xa5, 0x43, 0x60, 0xb8, 0xa3,
    0x85, 0xa9, 0x52, 0x35, 0xf8, 0x14, 0x20, 0x95, 0x0b, 0x75, 0xd3, 0x99, 0x35, 0xa1, 0x83, 0xd8,
    0xc6, 0xa0, 0x26, 0xa9, 0xd2, 0x45, 0xe3, 0x44, 0xd9, 0x45, 0xb1, 0x95, 0xba, 0x34, 0xc0, 0x7b,
    0xb7, 0x57, 0x4d, 0xc4, 0xca, 0x95, 0x01, 0x72, 0x9c, 0x72, 0x92, 0x46, 0x42, 0x35, 0xa0, 0x13,
    0xd6, 0x00, 0xf1, 0x93, 0x73, 0x7a, 0xb3, 0xf4, 0x81, 0xc5, 0x95, 0x91, 0x63, 0xb5, 0xef, 0x88,
    0x12, 0x83, 0xd0, 0x45, 0xb6, 0xb4, 0x5b, 0xc5, 0x16, 0x01, 0xe8, 0xd4, 0x87, 0x32, 0x93, 0xf3,
    0x53, 0xb4, 0x38, 0xd0, 0x91, 0xe2, 0xcc, 0x53, 0xf8, 0x8a, 0x67, 0x25, 0xdb, 0x06, 0x2f, 0xc6,
    0xc8, 0xf6, 0x46, 0x87, 0x86, 0x23, 0x63, 0xf0, 0xd0, 0xc7, 0x22, 0x51, 0x56, 0x04, 0xf7, 0x84,
    0x90, 0x7b, 0xe5, 0x84, 0x00, 0x83, 0xe5, 0x35, 0xa0, 0x12, 0x02, 0x21, 0xd6, 0x58, 0xb6, 0x24,
    0x01, 0xb4, 0x58, 0x32, 0x51, 0x55, 0x95, 0xa6, 0xe1, 0x18, 0x15, 0xdc, 0x70, 0xa6, 0x00, 0x54,
    0x7f, 0x75, 0x90, 0x53, 0xa5, 0xf6, 0x10, 0x23, 0xbc, 0x92, 0xd7, 0xa4, 0xd5, 0x43, 0x57, 0xcd,
    0x14, 0x54, 0x12, 0x5a, 0x01, 0x71, 0xe7, 0x50, 0x52, 0xe3, 0xb1, 0x72, 0x90, 0x62, 0xe6, 0x25,
    0x73, 0x20, 0xa2, 0x82, 0xc1, 0xb3, 0xb7, 0x06, 0x23, 0xb6, 0x80, 0xd3, 0xa8, 0xa3, 0x05, 0x92,
    0xf6, 0xa0, 0xb1, 0xfa, 0x54, 0x93, 0xc6, 0xb8, 0xf6, 0xf5, 0x1c, 0x90, 0x98, 0xb9, 0x26, 0x43,
    0x61, 0x33, 0xe7, 0x75, 0x51, 0x2a, 0xfc, 0x95, 0xc5, 0x20, 0x92, 0x69, 0x14, 0x9c, 0xb6, 0x20,
    0x69, 0xd8, 0x26, 0x63, 0x05, 0x72, 0x34, 0x13, 0x2b, 0xf6, 0xe2, 0x80, 0x31, 0x11, 0xeb, 0xd3,
    0x21, 0x50, 0x81, 0x10, 0x93, 0x8b, 0x35, 0x13, 0x48, 0xb3, 0xd5, 0xa0, 0xb7, 0xa6, 0xe4, 0x54,
    0xfc, 0x37, 0x57, 0x21, 0x26, 0xa8, 0xfa, 0x9d, 0xa6, 0xd1, 0xf9, 0x70, 0x0a, 0xc6, 0x72, 0xf3,
    0x3f, 0xe5, 0x03, 0xe1, 0xf4, 0x73, 0x79, 0x66, 0x90, 0xe5, 0xc4, 0xb5, 0xf8, 0xe5, 0x15, 0xb1,
    0x5a, 0x10, 0xee, 0x29, 0xd8, 0x53, 0x80, 0x10, 0x46, 0xf2, 0x72, 0x90, 0xb1, 0xa4, 0x53, 0x31,
    0x18, 0x24, 0x85, 0xb1, 0xb0, 0xd4, 0x45, 0x32, 0x54, 0x24, 0x53, 0x85, 0xc2, 0x71, 0x6b, 0x3b,
    0x56, 0x71, 0x34, 0x43, 0xaa, 0x93, 0xc2, 0x47, 0xb7, 0x5f, 0x99, 0x43, 0x72, 0x73, 0x28, 0x36,
    0x88, 0xd7, 0x35, 0x41, 0xec, 0x06, 0x52, 0xe8, 0x91, 0x2c, 0x96, 0xe0, 0x4d, 0x21, 0x94, 0xb6,
    0xd4, 0x48, 0x46, 0x53, 0x34, 0x61, 0x02, 0xe4, 0xf0, 0x5f, 0xe8, 0x40, 0x20, 0x31, 0x54, 0x12,
    0x92, 0xb1, 0xb5, 0x45, 0xf0, 0x86, 0x03, 0xe5, 0x11, 0xe5, 0x15, 0x5b, 0x76, 0x22, 0xca, 0x5c,
    0xc4, 0x66, 0x89, 0x91, 0xd1, 0x72, 0x71, 0x46, 0xf4, 0x13, 0xe0, 0xd5, 0xf7, 0x76, 0xf0, 0xd5,
    0xf3, 0xd7, 0xc0, 0xa6, 0x04, 0xa2, 0xdd, 0x6c, 0xa5, 0xd5, 0x39, 0xb2, 0x51, 0x60, 0x31, 0x52,
    0x17, 0xb9, 0x30, 0x52, 0x11, 0x92, 0x33, 0x47, 0x72, 0xa5, 0x10, 0x75, 0x16, 0xdb, 0x52, 0x13,
    0x17, 0x61, 0xb6, 0xd4, 0x73, 0x70, 0xf2, 0x9f, 0x55, 0xd6, 0x02, 0xb4, 0xf8, 0x64, 0x14, 0x3d,
    0x63, 0x46, 0x12, 0x29, 0x22, 0x58, 0x39, 0xb8, 0xb8, 0xb3, 0x8c, 0x06, 0x83, 0xe6, 0x20, 0xc8,
    0x3b, 0x93, 0xb7, 0x75, 0x4c, 0x19, 0x4a, 0xf9, 0xf6, 0x73, 0xe3, 0x63, 0x04, 0x01, 0xb3, 0x29,
    0x00, 0xa3, 0xb2, 0xea, 0x7b, 0xd5, 0x36, 0xb4, 0xc8, 0x96, 0xf4, 0x12, 0xb2, 0x72, 0xe4, 0xd7,
    0x51, 0x37, 0x4a, 0xc9, 0x00, 0xd2, 0xad, 0xe5, 0x43, 0x62, 0xd1, 0xd7, 0x98, 0x61, 0x24, 0xa0,
    0x0c, 0x36, 0x74, 0xf3, 0x02, 0x31, 0x12, 0x58, 0xb8, 0x04, 0xe5, 0x50, 0x05, 0xb1, 0x91, 0xf2,
    0xc4, 0xc4, 0xe7, 0x8c, 0x21, 0x90, 0xea, 0x95, 0x5e, 0xab, 0x71, 0x24, 0xf6, 0x31, 0xb4, 0x58,
    0x54, 0x24, 0x46, 0x70, 0x93, 0x50, 0xf0, 0xe5, 0x36, 0xd1, 0x08, 0xd6, 0xe0, 0x63, 0x50, 0xd3,
    0x7e, 0x2b, 0x08, 0x41, 0x28, 0x27, 0x19, 0x5c, 0x89, 0xa4, 0xe6, 0x49, 0x45, 0x51, 0x45, 0x10,
    0x26, 0xf1, 0xb1, 0x00, 0x27, 0x96, 0xa1, 0x83, 0x70, 0xfe, 0x9b, 0xf3, 0xa6, 0x75, 0x27, 0x50,
    0x17, 0x61, 0x85, 0x78, 0xbe, 0xc9, 0x51, 0x91, 0x76, 0xf3, 0xcf, 0x25, 0xa1, 0x73, 0xc9, 0x37,
    0x57, 0x35, 0xe5, 0x51, 0xf0, 0xd7, 0x26, 0xa5, 0x65, 0x15, 0xc6, 0xb4, 0x10, 0x96, 0xf4, 0xfa,
    0x89, 0x71, 0xfe, 0x96, 0x70, 0xd4, 0xf7, 0x57, 0x54, 0x49, 0x94, 0x72, 0xbb, 0x36, 0xdb, 0x7d,
    0x69, 0xc5, 0x0d, 0xb5, 0x3b, 0xf3, 0x66, 0xc3, 0x23, 0xe5, 0x23, 0xd0, 0x99, 0x42, 0xdf, 0x10,
    0xc3, 0x39, 0x56, 0x44, 0x49, 0xf1, 0x0a, 0xb2, 0x42, 0x44, 0x87, 0x04, 0xf4, 0x77, 0x90, 0xcd,
    0xfc, 0xa8, 0x74, 0x8d, 0x3b, 0x58, 0x29, 0xe1, 0x2f, 0x26, 0x40, 0x00, 0x65, 0x83, 0xd4, 0x80,
    0xe2, 0xf3, 0x98, 0x79, 0x13, 0xf2, 0xba, 0xb3, 0xaa, 0x4d, 0xc3, 0xf2, 0xa2, 0x4a, 0x91, 0x51,
    0x83, 0xf5, 0xa7, 0x40, 0x5d, 0x37, 0x95, 0x87, 0x73, 0xd0, 0x58, 0x21, 0xd4, 0x0a, 0xd7, 0x51,
    0x19, 0x50, 0x59, 0x50, 0x9c, 0xe7, 0xb0, 0xf6, 0x53, 0x71, 0x66, 0x45, 0x94, 0x81, 0xe2, 0xe1,
    0xe4, 0x4f, 0x95, 0xa8, 0x12, 0xa2, 0xb0, 0xb6, 0xc5, 0xf5, 0xf0, 0x26, 0x37, 0x90, 0xf2, 0xd8,
    0x03, 0x0d, 0x0a, 0x32, 0xf0, 0x47, 0x45, 0xd2, 0x28, 0xba, 0x06, 0x63, 0x76, 0xbc, 0x55, 0x65,
    0x62, 0x43, 0x9b, 0x28, 0x71, 0x09, 0xf4, 0xe9, 0x26, 0x16, 0xa5, 0x38, 0xb0, 0x3f, 0xd3, 0x9c,
    0xc8, 0x47, 0xcb, 0xfb, 0x69, 0xa0, 0xe7, 0x70, 0x88, 0xe3, 0x96, 0xe1, 0x45, 0xa8, 0x12, 0x00,
    0xf7, 0x7a, 0xf9, 0xa5, 0x29, 0xf0, 0xf0, 0xf9, 0x60, 0x70, 0x68, 0xc5, 0xa0, 0xc0, 0x10, 0x04,
    0xb3, 0x61, 0xdd, 0x27, 0x5a, 0xa3, 0x3b, 0x7a, 0x83, 0x86, 0x07, 0x8a, 0xc3, 0x66, 0xfa, 0x11,
    0x93, 0x24, 0x75, 0x43, 0x13, 0x22, 0x96, 0x76, 0xd7, 0x11, 0x18, 0x57, 0x42, 0x46, 0x81, 0x3b,
    0x82, 0x64, 0x68, 0x10, 0x3e, 0x87, 0x93, 0xe7, 0x94, 0x5f, 0x67, 0xc4, 0xf1, 0xb5, 0x6a, 0x16,
    0x55, 0x30, 0x02, 0x23, 0x62, 0xb1, 0x65, 0x16, 0xd0, 0x01, 0x04, 0x41, 0x82, 0x30, 0xe2, 0x5a,
    0xc3, 0x56, 0x7e, 0x1b, 0xe8, 0xd5, 0x9d, 0x23, 0xfa, 0xef, 0x06, 0x63, 0x87, 0xa1, 0x56, 0xf6,
    0xb2, 0x87, 0xb2, 0x55, 0xbc, 0x96, 0xc7, 0x85, 0x99, 0x30, 0x44, 0x91, 0x21, 0xd0, 0x80, 0x23,
    0x78, 0x07, 0x93, 0xe5, 0xdc, 0xea, 0xf0, 0x16, 0x53, 0x2a, 0xaa, 0xa0, 0x95, 0x45, 0x92, 0xa4,
    0xda, 0x95, 0x68, 0xb1, 0x12, 0x76, 0x02, 0xc5, 0x57, 0xe0, 0xc1, 0x23, 0x54, 0x7c, 0x34, 0x25,
    0x92, 0x7a, 0x65, 0x16, 0xf2, 0x60, 0x32, 0x21, 0x53, 0x28, 0x10, 0x0d, 0xbc, 0x96, 0x11, 0xfa,
    0xfb, 0x36, 0xbd, 0x92, 0x82, 0xb6, 0x0b, 0x12, 0xd4, 0xad, 0xf0, 0x45, 0x2d, 0x31, 0x09, 0x77,
    0xd3, 0x46, 0x3b, 0x48, 0x90, 0xb6, 0x0d, 0x92, 0x2e, 0x75, 0x52, 0x78, 0xb9, 0x51, 0x32, 0xea,
    0x47, 0xb5, 0x81, 0xf2, 0x14, 0x68, 0x38, 0x52, 0xb0, 0x52, 0xb3, 0x81, 0x34, 0xf7, 0x0f, 0xf6,
    0xa8, 0x0c, 0xb5, 0x23, 0xb7, 0x70, 0x0d, 0x29, 0x00, 0x4d, 0x88, 0x18, 0x1a, 0xf2, 0x31, 0xa3,
    0x53, 0x1c, 0x90, 0xb0, 0x24, 0x98, 0xf8, 0x99, 0x22, 0x9a, 0x31, 0x67, 0xda, 0xcb, 0xc9, 0xd6,
    0x81, 0x40, 0x2b, 0xc2, 0xd7, 0xf6, 0xa0, 0xa3, 0x01, 0xb2, 0x27, 0x13, 0x15, 0xa0, 0x61, 0x91,
    0x54, 0x6d, 0xf8, 0x23, 0x62, 0xe2, 0x26, 0x83, 0x00, 0x05, 0x21, 0xb8, 0x46, 0x34, 0x94, 0x64,
    0x84, 0x34, 0xb9, 0xe6, 0x04, 0x68, 0x9a, 0xda, 0x82, 0x81, 0x43, 0x1d, 0xf2, 0xd4, 0x35, 0x71,
    0x19, 0xd2, 0x49, 0xa8, 0xf0, 0x72, 0xd4, 0xe6, 0x34, 0xc2, 0xb2, 0xf2, 0x91, 0xe3, 0x80, 0xdb,
    0x51, 0xe3, 0xaf, 0x96, 0xa2, 0xe9, 0x51, 0xc6, 0x15, 0x48, 0x30, 0xee, 0xb7, 0x71, 0xcb, 0xa0,
    0xb4, 0x74, 0x80, 0xba, 0x10, 0x28, 0xe1, 0x65, 0x89, 0x13, 0xc8, 0xd0, 0xa4, 0xbc, 0x6c, 0xb8,
    0x07, 0xb3, 0x6a, 0xb2, 0x33, 0xe8, 0xa3, 0x3a, 0xc8, 0x14, 0xa8, 0x66, 0xf8, 0x9f, 0x3b, 0xab,
    0x76, 0xca, 0xb9, 0x74, 0x53, 0xa8, 0x00, 0x4a, 0x54, 0x85, 0xc0, 0xa5, 0xd6, 0x08, 0xbd, 0x89,
    0xe8, 0x12, 0x79, 0x2f, 0x7c, 0x77, 0xf1, 0xea, 0xa2, 0xd2, 0xd5, 0x15, 0x88, 0xc3, 0x48, 0x65,
    0xba, 0x10, 0xb8, 0x81, 0xe3, 0x81, 0xd6, 0xc5, 0xf7, 0x31, 0x26, 0xe6, 0x75, 0x78, 0x01, 0x01,
    0x82, 0xfb, 0xfa, 0x15, 0x0e, 0x76, 0x15, 0xf2, 0x3c, 0x83, 0xec, 0xbc, 0x53, 0xf7, 0x90, 0x80,
    0x38, 0xf4, 0xa6, 0x01, 0xed, 0x34, 0x10, 0xe2, 0xbf, 0x23, 0xd6, 0xb4, 0x91, 0xa0, 0x46, 0x27,
    0xd5, 0x3e, 0x80, 0xc4, 0x90, 0x13, 0x30, 0x12, 0x28, 0x38, 0x62, 0xf9, 0xb0, 0x72, 0x43, 0xe3,
    0x24, 0x02, 0xa4, 0x3a, 0x12, 0x19, 0x40, 0xeb, 0x21, 0x44, 0xd1, 0x8a, 0x36, 0x1c, 0x30, 0x19,
    0x72, 0x79, 0xb5, 0x7b, 0x30, 0x22, 0xd6, 0xd0, 0x49, 0x3e, 0xf7, 0xff, 0x79, 0x78, 0xd8, 0xb5,
    0xf8, 0x86, 0xa2, 0x12, 0xd6, 0x73, 0x97, 0xb0, 0xf8, 0x36, 0x43, 0xc4, 0x62, 0x9c, 0x37, 0x18,
    0x5e, 0x5b, 0xc3, 0xa4, 0x63, 0x01, 0x62, 0xf0, 0xf4, 0xa3, 0x48, 0xd2, 0x22, 0xd4, 0x82, 0x49,
    0xd1, 0x85, 0x00, 0x96, 0xf6, 0x93, 0x35, 0x14, 0x3a, 0xe7, 0x53, 0xfe, 0x26, 0x4a, 0x72, 0x30,
    0x78, 0xab, 0x55, 0xcc, 0x3d, 0x88, 0x38, 0x04, 0x28, 0xd3, 0xb1, 0x60, 0x96, 0x62, 0x52, 0x11,
    0xca, 0x06, 0xa4, 0x24, 0xb3, 0x89, 0x37, 0xfa, 0x98, 0xfa, 0xd2, 0xd2, 0xb0, 0xf0, 0xc8, 0xe9,
    0x28, 0xd4, 0x7f, 0xea, 0x45, 0x90, 0x50, 0x2b, 0xd4, 0x10, 0x2a, 0x84, 0xf8, 0xda, 0x06, 0x1c,
    0xc9, 0x64, 0xb1, 0xef, 0x20, 0x85, 0x48, 0xb1, 0x42, 0x99, 0x38, 0x33, 0x88, 0xa4, 0x67, 0x37,
    0x58, 0x07, 0x91, 0x3a, 0xe8, 0x01, 0x9a, 0x86, 0xfb, 0x62, 0x29, 0x1f, 0x92, 0x36, 0xa5, 0x73,
    0xf8, 0x5b, 0x76, 0x75, 0x5a, 0x45, 0x30, 0xd8, 0x30, 0x93, 0xc3, 0x93, 0x38, 0x04, 0xb1, 0x1e,
    0x21, 0xe9, 0xd6, 0xb4, 0xfb, 0x07, 0x05, 0xc5, 0xa4, 0xe4, 0x51, 0xb3, 0xab, 0x16, 0x22, 0xc8,
    0xc2, 0x88, 0xdb, 0xda, 0x70, 0xb0, 0x18, 0x69, 0xa1, 0x71, 0xdb, 0x1c, 0x10, 0x00, 0xab, 0xc6,
    0xf6, 0x13, 0xb6, 0xb8, 0x77, 0xd2, 0xb4, 0xb4, 0xc0, 0x2a, 0x02, 0xc3, 0x1b, 0xe1, 0x86, 0x42,
    0x40, 0x40, 0xbc, 0xc0, 0x90, 0xb9, 0xd3, 0xd2, 0xc6, 0xd6, 0xf5, 0x2f, 0x26, 0xc6, 0x38, 0xa6,
    0xd8, 0xbe, 0x7f, 0xf5, 0xaf, 0x36, 0x84, 0xe7, 0x53, 0x75, 0x50, 0x91, 0x11, 0x26, 0xc7, 0xa3,
    0x50, 0x10, 0xc2, 0x63, 0x80, 0x8a, 0xe1, 0x45, 0x32, 0xf4, 0x30, 0xd1, 0xe5, 0x81, 0x26, 0x04,
    0x95, 0x37, 0x2b, 0x14, 0x71, 0x3c, 0xa4, 0x35, 0x8b, 0xfb, 0x82, 0xc2, 0xda, 0x41, 0x15, 0x50,
    0x68, 0xc0, 0x49, 0xc5, 0xda, 0x10, 0xd0, 0xd2, 0x01, 0x63, 0x15, 0x91, 0x54, 0xd4, 0xb3, 0xd4,
    0xf6, 0x9b, 0x50, 0x65, 0x59, 0x42, 0x61, 0x35, 0x36, 0x04, 0x11, 0x01, 0x04, 0x36, 0x8d, 0x59,
    0xf0, 0xc6, 0xa6, 0x04, 0xa1, 0x11, 0x2b, 0x72, 0x17, 0x17, 0x03, 0x14, 0x00, 0xc6, 0x80, 0xa5,
    0x05, 0x77, 0x97, 0xf0, 0x27, 0x80, 0x84, 0xb5, 0xb1, 0x62, 0xbe, 0xd0, 0xd8, 0x3c, 0x85, 0xb3,
    0xfe, 0xd4, 0x44, 0x03, 0x72, 0x6b, 0xa8, 0xb4, 0x35, 0xe2, 0x72, 0xe8, 0x64, 0xf7, 0x5a, 0xd3,
    0xb1, 0xb6, 0x4a, 0x6e, 0x84, 0xe5, 0xd0, 0xd6, 0x72, 0xf1, 0xdf, 0xd3, 0x31, 0x40, 0x24, 0xd4,
    0xab, 0x5b, 0xb8, 0x21, 0x79, 0x50, 0x28, 0x24, 0x69, 0xdb, 0xdb, 0xe9, 0x67, 0xe4, 0x78, 0x55,
    0xd3, 0x37, 0x34, 0x45, 0x34, 0xc8, 0x06, 0x25, 0xaa, 0xa3, 0x44, 0x40, 0x30, 0x60, 0xf3, 0x18,
    0xf0, 0x6f, 0x60, 0x19, 0xeb, 0xe0, 0x23, 0x00, 0x04, 0x98, 0xd1, 0x37, 0x84, 0xa8, 0xc7, 0xb5,
    0xc2, 0xf8, 0x87, 0xc5, 0x68, 0x16, 0xea, 0xd2, 0xd6, 0x54, 0xd0, 0x22, 0x43, 0x14, 0xe5, 0x73,
    0x72, 0xb9, 0xa5, 0xb5, 0xa2, 0x28, 0x95, 0x17, 0x37, 0x53, 0x6b, 0x68, 0xeb, 0x8c, 0x13, 0xc9,
    0xc4, 0x82, 0xc3, 0x57, 0xe6, 0xf6, 0x3a, 0x4b, 0x93, 0x88, 0xb7, 0x36, 0x72, 0x91, 0xb4, 0xcc,
    0x05, 0x8a, 0xc8, 0x94, 0xd1, 0x19, 0x06, 0x93, 0xc0, 0x73, 0x17, 0x74, 0xb0, 0x5b, 0x35, 0x53,
    0x8b, 0xf1, 0x24, 0x88, 0x42, 0x15, 0xc9, 0xd6, 0x84, 0x70, 0x52, 0x84, 0xc7, 0x74, 0xf2, 0x76,
    0xb0, 0xc5, 0x46, 0x35, 0x37, 0x23, 0x86, 0x23, 0xd3, 0x46, 0x20, 0x2b, 0x15, 0x7b, 0x41, 0x18,
    0xf4, 0xaf, 0x75, 0x65, 0x4b, 0x7e, 0x16, 0x47, 0x04, 0xa8, 0xe3, 0x70, 0xe3, 0x27, 0x13, 0x38,
    0x0b, 0x45, 0xbb, 0x80, 0x4a, 0xc0, 0xd3, 0xb2, 0xa5, 0xd2, 0xe6, 0xf2, 0x72, 0x44, 0x76, 0x4d,
    0x28, 0xd2, 0x30, 0xf8, 0x89, 0xb4, 0x63, 0x51, 0xf3, 0x51, 0xd1, 0x21, 0x71, 0xf6, 0x37, 0xfa,
    0x59, 0x46, 0xb3, 0x32, 0xe7, 0xc7, 0xb2, 0xd2, 0x61, 0xf7, 0x13, 0xd1, 0x7a, 0xd5, 0xb3, 0x07,
    0x17, 0x94, 0x17, 0xb7, 0xe9, 0x17, 0x34, 0x35, 0xf7, 0x52, 0x46, 0x0a, 0x4a, 0x93, 0x94, 0xf6,
    0xd4, 0xd1, 0x97, 0x14, 0xd5, 0x29, 0xe1, 0x64, 0xe9, 0xf2, 0x93, 0xa4, 0x17, 0xd4, 0xbe, 0x40,
    0x1c, 0xd2, 0x21, 0x88, 0xd5, 0xf0, 0xe3, 0xa0, 0xf5, 0x7a, 0x57, 0xe7, 0x60, 0x43, 0xf7, 0x05,
    0x73, 0x11, 0xf7, 0x6f, 0xd7, 0x29, 0xb3, 0x86, 0xcb, 0xf4, 0x4f, 0x52, 0x73, 0x24, 0x46, 0x51,
    0xe8, 0xd4, 0xf1, 0x96, 0x47, 0xc9, 0x64, 0xcd, 0xf0, 0xc8, 0x29, 0x00, 0x12, 0xe0, 0xf6, 0xd3,
    0x32, 0x75, 0x16, 0x97, 0xc4, 0xb8, 0x56, 0x40, 0x65, 0x11, 0x96, 0x98, 0xc8, 0x69, 0xfc, 0x89,
    0x44, 0x59, 0x96, 0x5d, 0x97, 0xd6, 0xc6, 0x45, 0x83, 0x05, 0xd8, 0x73, 0x74, 0x84, 0x57, 0x13,
    0x70, 0xd7, 0x72, 0xe1, 0xe1, 0x00, 0x85, 0x05, 0xd6, 0xbb, 0x4b, 0xf8, 0xc4, 0x0b, 0x33, 0xaa,
    0x69, 0x79, 0xf1, 0x64, 0x56, 0xad, 0x72, 0x10, 0x22, 0x83, 0x43, 0xf5, 0x04, 0xe7, 0x9a, 0xb8,
    0x72, 0x92, 0x04, 0x54, 0xa6, 0x05, 0xa4, 0xf3, 0x82, 0xc8, 0xd1, 0x84, 0x14, 0x4e, 0x78, 0xd4,
    0x9e, 0x6c, 0xf6, 0x91, 0xf3, 0xff, 0xff, 0xff, 0xff, 0xff, 0xff, 0xff, 0xff, 0xff, 0xff, 0xff,
    0xfe, 0xfc, 0xff, 0xff, 0xff, 0x37, 0x8d, 0x53, 0x7d, 0x29, 0xc3, 0xff, 0xff, 0xff, 0xff, 0xa9,
    0x32, 0x4e, 0x64, 0x29, 0x97, 0xfe, 0xff, 0xff, 0xff, 0x54, 0x21, 0xb5, 0x7b, 0x29, 0xf2, 0x00,
    0x00, 0x00, 0x00, 0xcf, 0x83, 0x59, 0x41, 0x28, 0x76, 0xfe, 0xff, 0xff, 0xff, 0xb1, 0x82, 0x01,
    0x71, 0x29, 0x6c, 0xfe, 0xff, 0xff, 0xff, 0xc8, 0xb1, 0xad, 0x67, 0x29, 0xe0, 0xfe, 0xff, 0xff,
    0xff, 0x21, 0x01, 0xe1, 0x42, 0x28, 0xe4, 0xf9, 0xff, 0xff, 0xff, 0xa6, 0xab, 0xaa, 0x45, 0x28,
    0xa6, 0xff, 0xff, 0xff, 0xff, 0x53, 0xb5, 0x04, 0x54, 0x28, 0x97, 0xff, 0xff, 0xff, 0xff, 0x65,
    0x98, 0x59, 0x6f, 0x29, 0xc2, 0xfd, 0xff, 0xff, 0xff, 0xd6, 0xf2, 0x70, 0x6d, 0x29, 0x11, 0xfc,
    0xff, 0xff, 0xff, 0xc7, 0x1a, 0x2b, 0x42, 0x28, 0x84, 0xfd, 0xff, 0xff, 0xff, 0xbc, 0x5b, 0x3c,
    0x71, 0x29, 0x3d, 0x00, 0x00, 0x00, 0x00, 0xc3, 0xd8, 0xc9, 0x7d, 0x29, 0xc0, 0xfc, 0xff, 0xff,
    0xff, 0x57, 0xdb, 0x91, 0x53, 0x28, 0x4d, 0xf9, 0xff, 0xff, 0xff, 0x4e, 0x55, 0x4b, 0x7a, 0x29,
    0xfe, 0x2f, 0x5c, 0x00, 0x7c, 0x26, 0x86, 0x5a, 0x54, 0x08, 0x71, 0xc8, 0x43, 0x68, 0x79, 0x65,
    0xcc, 0xb0, 0x4d, 0xfa, 0x58, 0x8d, 0x35, 0x91, 0x44, 0xbb, 0xe2, 0x15, 0x23, 0x12, 0xa2, 0xd7,
    0x72, 0xf5, 0x60, 0x35, 0x64, 0x04, 0xa3, 0xc1, 0xfb, 0x8a, 0xb0, 0x36, 0xb4, 0x51, 0x06, 0x22,
    0x81, 0xa4, 0x10, 0x95, 0xa3, 0xd0, 0x52, 0x98, 0x37, 0x8b, 0x06, 0xc5, 0xf1, 0xa5, 0x32, 0xe0,
    0x85, 0xc2, 0xd0, 0x82, 0x44, 0x65, 0x60, 0xf6, 0x6c, 0xc4, 0xa0, 0x71, 0x51, 0x95, 0xa5, 0xd6,
    0x09, 0x5a, 0x94, 0xf0, 0xa0, 0x75, 0xd2, 0x61, 0xd9, 0x08, 0x26, 0x93, 0x23, 0xd6, 0xa7, 0xb0,
    0x33, 0xef, 0x08, 0xd9, 0x9b, 0x42, 0x1a, 0x95, 0x5f, 0x81, 0xa2, 0xc2, 0x42, 0xf6, 0x5a, 0xd1,
    0x50, 0x87, 0xb6, 0x2d, 0xa6, 0x64, 0xa3, 0xf6, 0xa8, 0x27, 0xa9, 0x83, 0xe4, 0x25, 0x12, 0xb6,
    0x12, 0x90, 0x05, 0x21, 0x93, 0x86, 0x99, 0x9a, 0x62, 0x99, 0x27, 0xb2, 0x72, 0xd7, 0x52, 0xa2,
    0x95, 0xa3, 0x45, 0x96, 0xa6, 0x93, 0x2a, 0xb6, 0x47, 0xf1, 0x81, 0xf4, 0xd2, 0x92, 0xc5, 0x15,
    0x06, 0x34, 0xe8, 0x53, 0x72, 0x7f, 0xd2, 0x13, 0xcc, 0xa5, 0x03, 0x31, 0x0b, 0xd9, 0x67, 0xc6,
    0x70, 0x9e, 0xa3, 0xb2, 0xc3, 0xc0, 0x22, 0xb1, 0xf3, 0x5f, 0xa2, 0x70, 0xc2, 0x43, 0x54, 0x37,
    0x98, 0x20, 0x49, 0xf8, 0x57, 0x90, 0x7b, 0x37, 0x41, 0x4a, 0xc4, 0x04, 0x63, 0x6b, 0xf0, 0xa1,
    0xc8, 0x97, 0x55, 0x49, 0xd6, 0xba, 0x96, 0x48, 0xa9, 0x19, 0xfa, 0x32, 0x01, 0xc5, 0x66, 0x58,
    0x3c, 0x2f, 0x93, 0x5b, 0xb6, 0xd0, 0x6f, 0xd1, 0xd0, 0x15, 0xf8, 0x9f, 0xac, 0xe1, 0x7f, 0xf4,
    0x97, 0x4e, 0xca, 0x1c, 0xa9, 0x30, 0xc3, 0x36, 0x6a, 0xc3, 0x94, 0xc7, 0x10, 0xd9, 0x45, 0x67,
    0xef, 0x77, 0x98, 0x06, 0x4d, 0xeb, 0xa5, 0x14, 0xa0, 0xb2, 0x17, 0x81, 0x33, 0xb7, 0xb7, 0xa1,
    0x56, 0x60, 0x30, 0x17, 0xf8, 0xbf, 0x50, 0x19, 0xa3, 0x3a, 0xd2, 0xca, 0x45, 0xb3, 0x53, 0xd0,
    0xe6, 0x86, 0x0c, 0xc3, 0x80, 0x6b, 0x30, 0x77, 0x64, 0xf7, 0xf5, 0xc9, 0x93, 0xe5, 0x36, 0x0e,
    0x44, 0x43, 0x01, 0x0e, 0xd2, 0xa8, 0x60, 0x10, 0x00, 0x62, 0x93, 0x09, 0xf4, 0x22, 0x6f, 0x34,
    0xf9, 0x40, 0xa3, 0x21, 0xc3, 0x98, 0xd8, 0x94, 0x63, 0xc0, 0x70, 0x74, 0x68, 0x9f, 0xb0, 0xf3,
    0x92, 0xf4, 0xf6, 0xaf, 0x81, 0xfc, 0x91, 0xa1, 0x37, 0x06, 0x15, 0xe7, 0x22, 0x45, 0x80, 0xf3,
    0x76, 0xa7, 0x03, 0x31, 0x7a, 0xb2, 0x24, 0x78, 0x65, 0x64, 0x50, 0x73, 0x34, 0xd1, 0x87, 0x92,
    0xe7, 0xa1, 0x14, 0x39, 0x86, 0x67, 0xc8, 0xc5, 0x00, 0x62, 0x80, 0xce, 0x74, 0x82, 0x68, 0xa1,
    0x77, 0x25, 0xc4, 0x8a, 0x54, 0xe4, 0x94, 0x68, 0x0e, 0x1a, 0x60, 0xe7, 0x75, 0x5d, 0xd3, 0x1c,
    0x16, 0x26, 0x46, 0xf5, 0x51, 0x60, 0xa9, 0xa1, 0x15, 0xc6, 0x26, 0xc4, 0x02, 0x24, 0x34, 0x43,
    0x70, 0x36, 0xd6, 0x86, 0x85, 0x17, 0x02, 0x21, 0x65, 0x55, 0xdc, 0xb2, 0x35, 0x20, 0x6b, 0xca,
    0xdd, 0xf4, 0x05, 0x06, 0x09, 0x2d, 0x95, 0x58, 0xf8, 0x24, 0x95, 0xa1, 0xc7, 0x80, 0x03, 0x26,
    0xd5, 0xa3, 0xc8, 0xa2, 0xb0, 0xf3, 0xcf, 0x13, 0xb7, 0x13, 0x95, 0x05, 0x04, 0xa4, 0x2b, 0x6c,
    0xd9, 0xfa, 0xbd, 0x1e, 0x3c, 0x58, 0x96, 0xfb, 0xe1, 0x82, 0x24, 0x76, 0xa0, 0x95, 0x79, 0xe5,
    0xd5, 0x4b, 0xc4, 0xb3, 0x17, 0x36, 0x1f, 0x47, 0x03, 0xd1, 0xb0, 0x31, 0x52, 0x86, 0xb8, 0x18,
    0xe3, 0x67, 0x92, 0xd8, 0x23, 0x42, 0x67, 0x51, 0xe3, 0x51, 0xe8, 0x01, 0xa8, 0x90, 0xc0, 0x26,
    0x4b, 0xf3, 0x53, 0xc4, 0x72, 0x90, 0x5a, 0xab, 0xe4, 0x43, 0xe3, 0x12, 0x3d, 0xaa, 0xa9, 0x38,
    0xe4, 0x53, 0xb2, 0xea, 0xe3, 0x16, 0x42, 0x36, 0xbb, 0x25, 0x42, 0xa7, 0x59, 0x1c, 0xc1, 0x91,
    0x64, 0x93, 0xe4, 0xc1, 0x87, 0xea, 0x17, 0x43, 0x0b, 0x23, 0x75, 0xb5, 0x96, 0x64, 0xf9, 0xf3,
    0xd8, 0x43, 0x60, 0xa8, 0x67, 0x91, 0x9b, 0x99, 0xf0, 0xe8, 0x00, 0xc1, 0x61, 0xe4, 0x9f, 0xc2,
    0x01, 0x94, 0x43, 0x29, 0x95, 0x95, 0x45, 0xf7, 0xa6, 0x36, 0x77, 0xf5, 0xc7, 0xab, 0x1a, 0xe9,
    0x82, 0x88, 0x04, 0x02, 0x3f, 0xd0, 0xc4, 0x22, 0xca, 0xb3, 0x02, 0xcc, 0x82, 0x31, 0xee, 0x68,
    0x47, 0xd0, 0x6a, 0xa7, 0x55, 0x94, 0xc0, 0xd7, 0xbe, 0xbc, 0x36, 0x14, 0x22, 0xf0, 0xe9, 0x9b,
    0x91, 0x6f, 0x43, 0x58, 0xc7, 0x80, 0xf7, 0xc0, 0xfa, 0xd3, 0x62, 0x4a, 0x41, 0x50, 0xe2, 0x08,
    0x57, 0xa5, 0xc1, 0x07, 0xe2, 0x14, 0x70, 0x28, 0xe6, 0x86, 0x71, 0xdb, 0x38, 0x5b, 0xe0, 0xca,
    0x4c, 0xc5, 0x66, 0xfa, 0x2a, 0x13, 0xcc, 0x0a, 0xe1, 0x52, 0xe4, 0x09, 0xd1, 0x67, 0xe6, 0xf8,
    0xa1, 0xa4, 0x15, 0x43, 0x48, 0x44, 0xb9, 0x96, 0x40, 0xab, 0xc9, 0x87, 0x5b, 0x5a, 0x1d, 0x58,
    0x92, 0x0f, 0x83, 0x44, 0xe0, 0xd6, 0xd2, 0x31, 0x13, 0x16, 0xca, 0x01, 0xf6, 0x14, 0x82, 0xc2,
    0x97, 0x51, 0x03, 0x32, 0xf7, 0xb2, 0xe5, 0x15, 0x72, 0x10, 0x79, 0xc4, 0x93, 0x83, 0x22, 0x09,
    0x7c, 0x94, 0x96, 0x5c, 0xc7, 0x71, 0x61, 0xa9, 0x94, 0x15, 0xf4, 0x60, 0x84, 0xf7, 0x0b, 0xf6,
    0x07, 0x92, 0x18, 0xf8, 0x6f, 0x58, 0x25, 0x55, 0xe0, 0xc4, 0x02, 0x2b, 0x0d, 0xba, 0xd5, 0x5f,
    0xae, 0xb4, 0x23, 0x70, 0x78, 0x3d, 0xfe, 0x62, 0x04, 0x67, 0x41, 0x08, 0x3c, 0xab, 0xa0, 0x45,
    0x59, 0x50, 0x90, 0x86, 0x08, 0x97, 0x37, 0xb4, 0x35, 0x13, 0x70, 0x46, 0xf1, 0xa0, 0x93, 0xe6,
    0x87, 0x36, 0x75, 0x38, 0x69, 0x4d, 0x20, 0x90, 0xc8, 0xc9, 0xb0, 0xe0, 0x5a, 0xc1, 0xe1, 0xe2,
    0xfa, 0xe1, 0xd7, 0x82, 0x38, 0x96, 0x64, 0x56, 0x53, 0x15, 0x6b, 0x60, 0x3a, 0x18, 0x23, 0xa4,
    0xeb, 0x93, 0x23, 0x46, 0xfd, 0x31, 0xd7, 0xd7, 0x72, 0x04, 0xa3, 0x63, 0x42, 0xe3, 0x52, 0x12,
    0x25, 0x44, 0x1a, 0x13, 0x40, 0x43, 0x40, 0x30, 0x41, 0x11, 0x90, 0x52, 0xa6, 0x23, 0x2b, 0x6f,
    0x27, 0x03, 0x92, 0xbd, 0xb1, 0x32, 0xab, 0x43, 0x71, 0x49, 0x46, 0x52, 0x91, 0x58, 0xc7, 0xf8,
    0x34, 0xd3, 0xe2, 0xd4, 0x05, 0x38, 0x5d, 0x01, 0x66, 0xc0, 0x95, 0xd8, 0xf8, 0x72, 0xc0, 0x63,
    0x94, 0xe1, 0xdf, 0xb4, 0xb5, 0x91, 0xd8, 0x37, 0xd8, 0x76, 0xd5, 0xf0, 0x22, 0xe7, 0x44, 0x46,
    0xc1, 0xcc, 0x0a, 0x9a, 0x44, 0x54, 0x95, 0x53, 0x30, 0x31, 0xb9, 0x13, 0xd0, 0x76, 0xc5, 0xa2,
    0x39, 0x04, 0x7a, 0xce, 0xd5, 0xa3, 0xe7, 0xf1, 0x2a, 0x3b, 0x3a, 0x36, 0xb0, 0xd9, 0x2a, 0xf8,
    0x23, 0x16, 0x82, 0xb3, 0xf0, 0x41, 0x00, 0x3f, 0x62, 0x63, 0x87, 0x68, 0x95, 0x7c, 0x21, 0x8d,
    0x62, 0x60, 0x09, 0xf2, 0xf1, 0xd5, 0xe0, 0xa0, 0x11, 0x80, 0xf3, 0x01, 0xd3, 0x33, 0xe9, 0x05,
    0xbd, 0x87, 0xd5, 0xb7, 0x08, 0xd1, 0x86, 0x52, 0x51, 0x7a, 0xc2, 0x56, 0x34, 0x70, 0x55, 0x1d,
    0x17, 0xd6, 0xfd, 0x29, 0xc1, 0xf0, 0x85, 0xd5, 0x59, 0x72, 0x8b, 0x5c, 0xbe, 0xa7, 0x88, 0x11,
    0x76, 0x5c, 0xf2, 0xa4, 0xe0, 0x87, 0xd3, 0xd6, 0x13, 0x04, 0xf9, 0xab, 0xb3, 0x71, 0xd8, 0xf0,
    0x30, 0xb0, 0x67, 0x48, 0x82, 0xf3, 0x10, 0x68, 0x0b, 0x34, 0x21, 0x93, 0xe1, 0x45, 0xee, 0x51,
    0x60, 0x49, 0x21, 0x12, 0xc9, 0x0b, 0x43, 0xf2, 0x4f, 0x97, 0x10, 0x12, 0x33, 0xe2, 0x47, 0x40,
    0xb0, 0xbb, 0x76, 0x5c, 0x6e, 0x40, 0x77, 0xf8, 0x4f, 0x86, 0x2a, 0xda, 0x32, 0xf9, 0x52, 0xca,
    0xc7, 0x66, 0x08, 0x65, 0x35, 0xdc, 0x93, 0xf1, 0x49, 0x75, 0xc1, 0x61, 0x59, 0xe8, 0x00, 0xfb,
    0xe0, 0x94, 0x63, 0xf3, 0xf0, 0x12, 0x03, 0xb2, 0xc9, 0x73, 0x92, 0x57, 0xb2, 0xc2, 0x94, 0x72,
    0x27, 0xc2, 0x6d, 0xb8, 0x3a, 0x55, 0x50, 0x62, 0x14, 0x11, 0x15, 0x91, 0x12, 0xf4, 0x2a, 0xe5,
    0x30, 0x11, 0x4d, 0x69, 0x94, 0x34, 0x72, 0x24, 0x36, 0xd6, 0xa3, 0x24, 0x37, 0x52, 0x1e, 0x36,
    0x60, 0x23, 0xf6, 0xea, 0x77, 0xb8, 0x61, 0x35, 0x92, 0x28, 0xf9, 0x94, 0xa1, 0x5a, 0x73, 0x97,
    0x92, 0x22, 0x2a, 0xdc, 0xb3, 0x71, 0xc4, 0x10, 0x05, 0x83, 0xd2, 0xa8, 0x05, 0x7c, 0x98, 0x45,
    0x34, 0xf1, 0x32, 0xe4, 0x38, 0x04, 0xa5, 0x02, 0x42, 0x72, 0x94, 0xe0, 0xa4, 0x86, 0xf2, 0xe5,
    0x62, 0x26, 0x17, 0xd5, 0x61, 0xf3, 0x54, 0x31, 0xd6, 0xc0, 0x96, 0xc6, 0x55, 0xb3, 0x07, 0xe3,
    0x61, 0x07, 0xf2, 0xc2, 0xd7, 0x17, 0xb8, 0xf4, 0x34, 0xd2, 0xf1, 0xf2, 0xa3, 0x95, 0x04, 0x3a,
    0x44, 0x3b, 0x53, 0x5b, 0xf8, 0x60, 0x88, 0xa5, 0xc1, 0x31, 0xf2, 0x31, 0x56, 0x34, 0x82, 0x39,
    0x40, 0x99, 0x74, 0x46, 0x67, 0x01, 0x85, 0x84, 0x44, 0x50, 0x62, 0x31, 0xba, 0xb9, 0x50, 0x90,
    0x1e, 0xa0, 0x85, 0xa9, 0xa7, 0xc4, 0x6e, 0x76, 0x92, 0x21, 0x62, 0x95, 0x05, 0xe1, 0x13, 0xb9,
    0x81, 0xf4, 0xc2, 0x15, 0xb1, 0xc8, 0x78, 0xfd, 0x0c, 0x02, 0x75, 0x06, 0x19, 0x38, 0x33, 0xda,
    0xc6, 0x36, 0xc8, 0xc7, 0x23, 0x04, 0x75, 0x08, 0xa5, 0x71, 0x62, 0x67, 0x93, 0x78, 0x12, 0x59,
    0xa0, 0x48, 0xc4, 0xc1, 0xd4, 0x22, 0x93, 0x71, 0x29, 0xc9, 0xa2, 0x11, 0x22, 0x75, 0x13, 0x33,
    0x84, 0x55, 0x22, 0x83, 0x20, 0x9d, 0xba, 0x56, 0x7c, 0xe4, 0xbe, 0xd3, 0xc6, 0x05, 0xec, 0x39,
    0xd4, 0x85, 0xd3, 0x67, 0xb3, 0x6d, 0xc2, 0x86, 0xd3, 0x14, 0x7a, 0x73, 0x13, 0xc0, 0xf0, 0xd4,
    0x59, 0xcb, 0xb5, 0x73, 0xfa, 0x80, 0xd0, 0x70, 0x46, 0x20, 0x43, 0x70, 0x06, 0x2a, 0x02, 0xf2,
    0xc6, 0x57, 0x70, 0xf8, 0x1f, 0x16, 0x97, 0xe3, 0xf0, 0x52, 0x06, 0x16, 0x40, 0x12, 0x9b, 0xc3,
    0xf1, 0xff, 0x1b, 0xf5, 0xf2, 0x73, 0x2f, 0x7c, 0x8c, 0x63, 0x29, 0x51, 0xd9, 0x56, 0x6b, 0x3b,
    0x20, 0x34, 0x45, 0x50, 0x15, 0x24, 0x40, 0x0d, 0xfa, 0x6f, 0x91, 0x99, 0x90, 0x19, 0xb6, 0xc9,
    0x38, 0xa8, 0xb2, 0x32, 0x3d, 0x30, 0xb6, 0x82, 0x40, 0x91, 0x31, 0xe1, 0xe0, 0x29, 0xfb, 0x41,
    0xa7, 0x52, 0x78, 0xd5, 0x38, 0x04, 0xa5, 0x92, 0xab, 0x84, 0x72, 0x6d, 0x43, 0x15, 0x94, 0xee,
    0x66, 0xe0, 0x93, 0x64, 0x90, 0xd0, 0xb2, 0xaa, 0x35, 0x94, 0xb5, 0x6a, 0xf6, 0x95, 0x27, 0x3a,
    0x05, 0xa3, 0xc5, 0x20, 0xa3, 0x24, 0x82, 0xd2, 0x05, 0x85, 0x9c, 0xfa, 0x29, 0x39, 0xd1, 0x74,
    0x55, 0x80, 0x72, 0x70, 0x25, 0x94, 0x48, 0x61, 0x33, 0x01, 0x71, 0x1a, 0x22, 0x38, 0xc1, 0x64,
    0x54, 0x21, 0xa6, 0x70, 0xb9, 0x53, 0x41, 0x97, 0x1a, 0x79, 0xea, 0x52, 0x31, 0xd3, 0x41, 0x96,
    0x6b, 0x73, 0x38, 0x8a, 0x91, 0x17, 0xc5, 0xd1, 0x71, 0x4e, 0xc5, 0xb4, 0x82, 0x24, 0xf5, 0x1f,
    0x40, 0xd5, 0x95, 0x28, 0x18, 0x6e, 0x74, 0x73, 0x7e, 0x37, 0x18, 0x69, 0x37, 0x78, 0x66, 0xf4,
    0x5a, 0x58, 0x00, 0x16, 0x37, 0x42, 0xf5, 0xaf, 0x56, 0xea, 0xa0, 0x40, 0x41, 0x91, 0xb7, 0xd6,
    0x12, 0x92, 0xa5, 0x02, 0xf3, 0xff, 0xff, 0xff, 0xff, 0xff, 0xff, 0xff, 0xff, 0xff, 0xff, 0xff,
    0x16, 0xb6, 0xc6, 0xc7, 0xa7, 0xbe, 0xb4, 0xd5, 0xb5, 0xbb, 0x7f, 0xb3, 0xa8, 0xad, 0xf7, 0xa9,
    0xd2, 0xb1, 0xba, 0x0b, 0x07, 0xcd, 0xb7, 0xd1, 0xae, 0xc0, 0x04, 0xe3, 0xc1, 0xf9, 0xc2, 0xca,
    0x00, 0x45, 0xd3, 0xe9, 0xb1, 0xd8, 0x05, 0xae, 0xdf, 0xb5, 0xe8, 0xac, 0xa4, 0xc5, 0xba, 0xb8,
    0xcf, 0xa9, 0xda, 0xc9, 0xd0, 0xc0, 0xa6, 0xb6, 0xb1, 0xb8, 0xb6, 0xbf, 0xcc, 0xc0, 0xc0, 0xce,
    0x08, 0x0b, 0x16, 0x80, 0xdc, 0xce, 0xa4, 0xe9, 0xed, 0xf8, 0x1b, 0xd7, 0x9c, 0x01, 0x20, 0x0a,
    0xd1, 0xf3, 0xd4, 0x2e, 0xe1, 0xf5, 0x91, 0xe5, 0xf0, 0x1d, 0xf9, 0xd3, 0x1e, 0x42, 0xc6, 0xfb,
    0x0e, 0x5c, 0x12, 0x0d, 0xeb, 0xae, 0x18, 0xaf, 0xf3, 0xca, 0xe8, 0x04, 0x27, 0x23, 0x82, 0xea,
    0xcf, 0x0c, 0x1b, 0xc9, 0xc7, 0x05, 0xd5, 0xb8, 0xc8, 0xb9, 0xcc, 0x18, 0xeb, 0x9e, 0x30, 0x1f,
    0x00, 0x00, 0x00, 0x00, 0x00, 0x00, 0x00, 0x00, 0x40, 0x1e, 0x00, 0x00, 0x00, 0x00, 0x00, 0x00,
    0x00, 0x00, 0x40, 0x1e, 0x00, 0x00, 0x00, 0x00, 0x00, 0x00, 0x00, 0x00, 0x40, 0x1e, 0x00, 0x00,
    0x00, 0x00, 0x00, 0x00, 0x00, 0x00, 0x40, 0x1e, 0x00, 0x00, 0x00, 0x00, 0x00, 0x00, 0x00, 0x00,
    0x40, 0x1e, 0x00, 0x00, 0x00, 0x00, 0x00, 0x00, 0x00, 0x00, 0x40, 0x1e, 0x00, 0x00, 0x00, 0x00,
    0x00, 0x00, 0x00, 0x00, 0x40, 0x1e, 0x00, 0x00, 0x00, 0x00, 0x00, 0x00, 0x00, 0x00, 0x40, 0x1e,
    0x00, 0x00, 0x00, 0x00, 0x00, 0x00, 0x00, 0x00, 0x40, 0x1e, 0x00, 0x00, 0x00, 0x00, 0x00, 0x00,
    0x00, 0x00, 0x40, 0x1e, 0x00, 0x00, 0x00, 0x00, 0x00, 0x00, 0x00, 0x00, 0x40, 0x1e, 0x00, 0x00,
    0x00, 0x00, 0x00, 0x00, 0x00, 0x00, 0x40, 0x1e, 0x00, 0x00, 0x00, 0x00, 0x00, 0x00, 0x00, 0x00,
    0x40, 0x1e, 0x00, 0x00, 0x00, 0x00, 0x00, 0x00, 0x00, 0x00, 0x40, 0x1e, 0x00, 0x00, 0x00, 0x00,
    0x00, 0x00, 0x00, 0x00, 0x40, 0x1e, 0x00, 0x00, 0x00, 0x00, 0x00, 0x00, 0x00, 0x00, 0x40, 0x1e,
    0x00, 0x00, 0x00, 0x00, 0x00, 0x00, 0x00, 0x00, 0x40, 0x1e, 0x00, 0x00, 0x00, 0x00, 0x00, 0x00,
    0x00, 0x00, 0x40, 0x1e, 0x00, 0x00, 0x00, 0x00, 0x00, 0x00, 0x00, 0x00, 0x40, 0x1e, 0x00, 0x00,
    0x00, 0x00, 0x00, 0x00, 0x00, 0x00, 0x40, 0x1e, 0x00, 0x00, 0x00, 0x00, 0x00, 0x00, 0x00, 0x00,
    0x40, 0x1e, 0x00, 0x00, 0x00, 0x00, 0x00, 0x00, 0x00, 0x00, 0x40, 0x1e, 0x00, 0x00, 0x00, 0x00,
    0x00, 0x00, 0x00, 0x00, 0x40, 0x1e, 0x00, 0x00, 0x00, 0x00, 0x00, 0x00, 0x00, 0x00, 0x40, 0x1e,
    0x00, 0x00, 0x00, 0x00, 0x00, 0x00, 0x00, 0x00, 0x40, 0x1e, 0x00, 0x00, 0x00, 0x00, 0x00, 0x00,
    0x00, 0x00, 0x40, 0x1e, 0x00, 0x00, 0x00, 0x00, 0x00, 0x00, 0x00, 0x00, 0x40, 0x1e, 0x00, 0x00,
    0x00, 0x00, 0x00, 0x00, 0x00, 0x00, 0x40, 0x1e, 0x00, 0x00, 0x00, 0x00, 0x00, 0x00, 0x00, 0x00,
    0x40, 0x1e, 0x00, 0x00, 0x00, 0x00, 0x00, 0x00, 0x00, 0x00, 0x40, 0x1e, 0x00, 0x00, 0x00, 0x00,
    0x00, 0x00, 0x00, 0x00, 0x40, 0x1e, 0x00, 0x00, 0x00, 0x00, 0x00, 0x00, 0x00, 0x00, 0x40, 0x1e,
    0x00, 0x00, 0x00, 0x00, 0x00, 0x00, 0x00, 0x00, 0x40, 0x1e, 0x00, 0x00, 0x00, 0x00, 0x00, 0x00,
    0x00, 0x00, 0x40, 0x1e, 0x00, 0x00, 0x00, 0x00, 0x00, 0x00, 0x00, 0x00, 0x40, 0x1e, 0x00, 0x00,
    0x00, 0x00, 0x00, 0x00, 0x00, 0x00, 0x40, 0x1e, 0x00, 0x00, 0x00, 0x00, 0x00, 0x00, 0x00, 0x00,
    0x40, 0x1e, 0x00, 0x00, 0x00, 0x00, 0x00, 0x00, 0x00, 0x00, 0x40, 0x1e, 0x00, 0x00, 0x00, 0x00,
    0x00, 0x00, 0x00, 0x00, 0x40, 0x1e, 0x00, 0x00, 0x00, 0x00, 0x00, 0x00, 0x00, 0x00, 0x40, 0x1e,
    0x00, 0x00, 0x00, 0x00, 0x00, 0x00, 0x00, 0x00, 0x40, 0x1e, 0x00, 0x00, 0x00, 0x00, 0x00, 0x00,
    0x00, 0x00, 0x40, 0x1e, 0x00, 0x00, 0x00, 0x00, 0x00, 0x00, 0x00, 0x00, 0x40, 0x1e, 0x00, 0x00,
    0x00, 0x00, 0x00, 0x00, 0x00, 0x00, 0x40, 0x1e, 0x00, 0x00, 0x00, 0x00, 0x00, 0x00, 0x00, 0x00,
    0x40, 0x1e, 0x00, 0x00, 0x00, 0x00, 0x00, 0x00, 0x00, 0x00, 0x40, 0x1e, 0x00, 0x00, 0x00, 0x00,
    0x00, 0x00, 0x00, 0x00, 0x40, 0x1e, 0x00, 0x00, 0x00, 0x00, 0x00, 0x00, 0x00, 0x00, 0x40, 0x1e,
    0x00, 0x00, 0x00, 0x00, 0x00, 0x00, 0x00, 0x00, 0x40, 0x1e, 0x00, 0x00, 0x00, 0x00, 0x00, 0x00,
    0x00, 0x00, 0x40, 0x1e, 0x00, 0x00, 0x00, 0x00, 0x00, 0x00, 0x00, 0x00, 0x40, 0x1e, 0x00, 0x00,
    0x00, 0x00, 0x00, 0x00, 0x00, 0x00, 0x40, 0x1e, 0x00, 0x00, 0x00, 0x00, 0x00, 0x00, 0x00, 0x00,
    0x40, 0x1e, 0x00, 0x00, 0x00, 0x00, 0x00, 0x00, 0x00, 0x00, 0x40, 0x1e, 0x00, 0x00, 0x00, 0x00,
    0x00, 0x00, 0x00, 0x00, 0x40, 0x1e, 0x00, 0x00, 0x00, 0x00, 0x00, 0x00, 0x00, 0x00, 0x40, 0x1e,
    0x00, 0x00, 0x00, 0x00, 0x00, 0x00, 0x00, 0x00, 0x40, 0x1e, 0x00, 0x00, 0x00, 0x00, 0x00, 0x00,
    0x00, 0x00, 0x40, 0x1e, 0x00, 0x00, 0x00, 0x00, 0x00, 0x00, 0x00, 0x00, 0x40, 0x1e, 0x00, 0x00,
    0x00, 0x00, 0x00, 0x00, 0x00, 0x00, 0x40, 0x1e, 0x00, 0x00, 0x00, 0x00, 0x00, 0x00, 0x00, 0x00,
    0x40, 0x1e, 0x00, 0x00, 0x00, 0x00, 0x00, 0x00, 0x00, 0x00, 0x40, 0x1e, 0x00, 0x00, 0x00, 0x00,
    0x00, 0x00, 0x00, 0x00, 0x40, 0x1e, 0x00, 0x00, 0x00, 0x00, 0x00, 0x00, 0x00, 0x00, 0x40, 0x1e,
    0xfe, 0x7f, 0x40, 0x11, 0x20, 0x00, 0x00, 0x00, 0x00, 0x00, 0x00, 0x00, 0x00, 0x00, 0x00, 0x00,
    0x00, 0x00, 0x00, 0x00, 0x00, 0x00, 0x00, 0x00, 0x00, 0x00, 0x00, 0x00, 0x00, 0x00, 0x00, 0x00,
    0x00, 0x00, 0x00, 0x00, 0x00, 0x00, 0x00, 0x00, 0x00, 0x00, 0x00, 0x00, 0x00, 0x00, 0x00, 0x00,
    0x00, 0x00, 0x00, 0x00, 0x00, 0x00, 0x00, 0x00, 0x00, 0x00, 0x00, 0x00, 0x00, 0x00, 0x00, 0x00,
    0x00, 0x00, 0x00, 0x00, 0x00, 0x00, 0x00, 0x00, 0x00, 0x00, 0x00, 0x00, 0x00, 0x00, 0x00, 0x00,
    0x00, 0x00, 0x00, 0x00, 0x00, 0x00, 0x00, 0x00, 0x00, 0x00, 0x00, 0x00, 0x00, 0x00, 0x00, 0x00,
    0x00, 0x00, 0x00, 0x00, 0x00, 0x00, 0x00, 0x00, 0x00, 0x00, 0x00, 0x00, 0x00, 0x00, 0x00, 0x00,
    0x00, 0x00, 0x00, 0x00, 0x00, 0x00, 0x00, 0x00, 0x00, 0x00, 0x00, 0x00, 0x00, 0x00, 0x00, 0x00,
    0x00, 0x00, 0x00, 0x00, 0x00, 0x00, 0x00, 0x00, 0x00, 0x00, 0x00, 0x00, 0x00, 0x00, 0x00, 0x00,
    0x00, 0x00, 0x00, 0x00, 0x00, 0x00, 0x00, 0x00, 0x00, 0x00, 0x00, 0x00, 0x00, 0x00, 0x00, 0x00,
    0x00, 0x00, 0x00, 0x00, 0x00, 0x00, 0x00, 0x00, 0x00, 0x00, 0x00, 0x00, 0x00, 0x00, 0x00, 0x00,
    0x00, 0x00, 0x00, 0x00, 0x00, 0x00, 0x00, 0x00, 0x00, 0x00, 0x00, 0x00, 0x00, 0x00, 0x00, 0x00,
    0x00, 0x00, 0x00, 0x00, 0x00, 0x00, 0x00, 0x00, 0x00, 0x00, 0x00, 0x00, 0x00, 0x00, 0x00, 0x00,
    0x00, 0x00, 0x00, 0x00, 0x00, 0x00, 0x00, 0x00, 0x00, 0x00, 0x00, 0x00, 0x00, 0x00, 0x00, 0x00,
    0x00, 0x00, 0x00, 0x00, 0x00, 0x00, 0x00, 0x00, 0x00, 0x00, 0x00, 0x00, 0x00, 0x00, 0x00, 0x00,
    0x00, 0x00, 0x00, 0x00, 0x00, 0x00, 0x00, 0x00, 0x00, 0x00, 0x00, 0x00, 0x00, 0x00, 0x00, 0x00,
    0x00, 0x00, 0x00, 0x00, 0x00, 0x00, 0x00, 0x00, 0x00, 0x00, 0x00, 0x00, 0x00, 0x00, 0x00, 0x00,
    0x00, 0x00, 0x00, 0x00, 0x00, 0x00, 0x00, 0x00, 0x00, 0x00, 0x00, 0x00, 0x00, 0x00, 0x00, 0x00,
    0x00, 0x00, 0x00, 0x00, 0x00, 0x00, 0x00, 0x00, 0x00, 0x00, 0x00, 0x00, 0x00, 0x00, 0x00, 0x00,
    0x00, 0x00, 0x00, 0x00, 0x00, 0x00, 0x00, 0x00, 0x00, 0x00, 0x00, 0x00, 0x00, 0x00, 0x00, 0x00,
    0x00, 0x00, 0x00, 0x00, 0x00, 0x00, 0x00, 0x00, 0x00, 0x00, 0x00, 0x00, 0x00, 0x00, 0x00, 0x00,
    0x00, 0x00, 0x00, 0x00, 0x00, 0x00, 0x00, 0x00, 0x00, 0x00, 0x00, 0x00, 0x00, 0x00, 0x00, 0x00,
    0x00, 0x00, 0x00, 0x00, 0x00, 0x00, 0x00, 0x00, 0x00, 0x00, 0x00, 0x00, 0x00, 0x00, 0x00, 0x00,
    0x00, 0x00, 0x00, 0x00, 0x00, 0x00, 0x00, 0x00, 0x00, 0x00, 0x00, 0x00, 0x00, 0x00, 0x00, 0x00,
    0x00, 0x00, 0x00, 0x00, 0x00, 0x00, 0x00, 0x00, 0x00, 0x00, 0x00, 0x00, 0x00, 0x00, 0x00, 0x00,
    0x00, 0x00, 0x00, 0x00, 0x00, 0x00, 0x00, 0x00, 0x00, 0x00, 0x00, 0x00, 0x00, 0x00, 0x00, 0x00,
    0x00, 0x00, 0x00, 0x00, 0x00, 0x00, 0x00, 0x00, 0x00, 0x00, 0x00, 0x00, 0x00, 0x00, 0x00, 0x00,
    0x00, 0x00, 0x00, 0x00, 0x00, 0x00, 0x00, 0x00, 0x00, 0x00, 0x00, 0x00, 0x00, 0x00, 0x00, 0x00,
    0x00, 0x00, 0x00, 0x00, 0x00, 0x00, 0x00, 0x00, 0x00, 0x00, 0x00, 0x00, 0x00, 0x00, 0x00, 0x00,
    0x00, 0x00, 0x00, 0x00, 0x00, 0x00, 0x00, 0x00, 0x00, 0x00, 0x00, 0x00, 0x00, 0x00, 0x00, 0x00,
    0x00, 0x00, 0x00, 0x00, 0x00, 0x00, 0x00, 0x00, 0x00, 0x00, 0x00, 0x00, 0x00, 0x00, 0x00, 0x00,
    0x00, 0x00, 0x00, 0x00, 0x00, 0x00, 0x00, 0x00, 0x00, 0x00, 0x00, 0x00, 0x00, 0x00, 0x00, 0x00,
    0x00, 0x00, 0x00, 0x00, 0x00, 0x00, 0xff, 0xff, 0xff, 0xff, 0xff, 0xff, 0xff, 0xff, 0xff, 0xff,
    0xd6, 0x20, 0xcb, 0x4b, 0x00, 0x00, 0x00, 0x00, 0x00, 0x00, 0x00, 0x00, 0x00, 0x00, 0x00, 0x00,
    0xd9, 0x0b, 0x00, 0x00, 0x00, 0x95, 0xee, 0xd2, 0x57, 0x27, 0x5b, 0x05, 0x00, 0x00, 0x00, 0x57,
    0xaf, 0x0c, 0x48, 0x26, 0xb2, 0x09, 0x00, 0x00, 0x00, 0xe0, 0x0c, 0x30, 0x59, 0x27, 0xf6, 0x06,
    0x00, 0x00, 0x00, 0xbb, 0xae, 0x36, 0x57, 0x27, 0x71, 0x0b, 0x00, 0x00, 0x00, 0x73, 0x6a, 0x83,
    0x40, 0x27, 0x9c, 0x08, 0x00, 0x00, 0x00, 0xd2, 0x7a, 0xa7, 0x60, 0x27, 0xb8, 0x0a, 0x00, 0x00,
    0x00, 0xef, 0x07, 0xe2, 0x68, 0x27, 0x43, 0x06, 0x00, 0x00, 0x00, 0xbc, 0x58, 0xec, 0x5a, 0x27,
    0xe1, 0x01, 0x00, 0x00, 0x00, 0x46, 0x6c, 0x4b, 0x59, 0x27, 0x65, 0x03, 0x00, 0x00, 0x00, 0x7f,
    0xe1, 0x07, 0x5b, 0x27, 0x84, 0x08, 0x00, 0x00, 0x00, 0xa2, 0x8e, 0x4d, 0x66, 0x27, 0xb3, 0x0e,
    0x00, 0x00, 0x00, 0x2e, 0x25, 0x1c, 0x42, 0x27, 0x19, 0xfe, 0xff, 0xff, 0xff, 0xc9, 0x35, 0x51,
    0x51, 0x27, 0xab, 0x00, 0x00, 0x00, 0x00, 0x8e, 0xc2, 0xfd, 0x5a, 0x27, 0xca, 0xfd, 0xff, 0xff,
    0xff, 0x2c, 0x59, 0x16, 0x4f, 0x27, 0x6d, 0x06, 0x00, 0x00, 0x00, 0x60, 0xfb, 0x7f, 0x50, 0x27,
    0xae, 0x0b, 0x00, 0x00, 0x00, 0x70, 0x56, 0x57, 0x60, 0x27, 0x07, 0x07, 0x00, 0x00, 0x00, 0xe1,
    0x6d, 0x8a, 0x54, 0x27, 0xdc, 0x04, 0x00, 0x00, 0x00, 0x7f, 0x3a, 0xbb, 0x74, 0x27, 0xfb, 0x0a,
    0x00, 0x00, 0x00, 0x75, 0xbc, 0x6b, 0x5c, 0x27, 0x6f, 0x0a, 0x00, 0x00, 0x00, 0xcd, 0x9b, 0xfd,
    0x4e, 0x27, 0x18, 0x0b, 0x00, 0x00, 0x00, 0xa7, 0x0e, 0xb2, 0x47, 0x27, 0x5b, 0x0c, 0x00, 0x00,
    0x00, 0x8e, 0x78, 0x78, 0x50, 0x27, 0x82, 0xff, 0xff, 0xff, 0xff, 0xcc, 0x63, 0x24, 0x49, 0x27,
    0xa3, 0x11, 0x00, 0x00, 0x00, 0x26, 0x94, 0xa0, 0x6c, 0x27, 0xe4, 0x01, 0x00, 0x00, 0x00, 0x2b,
    0x30, 0x23, 0x5c, 0x27, 0xf5, 0xff, 0xff, 0xff, 0xff, 0xf7, 0x6c, 0x07, 0x61, 0x27, 0x6f, 0xfd,
    0xff, 0xff, 0xff, 0x42, 0x43, 0x4b, 0x55, 0x27, 0xf2, 0x05, 0x00, 0x00, 0x00, 0x20, 0x46, 0xe5,
    0x65, 0x27, 0xed, 0x06, 0x00, 0x00, 0x00, 0x0a, 0x7c, 0x21, 0x49, 0x27, 0x01, 0x04, 0x00, 0x00,
    0x00, 0xd3, 0x69, 0xf2, 0x79, 0x28, 0xb1, 0x10, 0x00, 0x00, 0x00, 0x40, 0xbd, 0xb9, 0x4b, 0x27,
    0xfe, 0x3f, 0x5c, 0x00, 0xdc, 0x70, 0xd5, 0x11, 0xe7, 0x71, 0x18, 0x08, 0xdc, 0x54, 0x11, 0xd1,
    0x83, 0xf8, 0xd5, 0xc5, 0x34, 0xb2, 0xf7, 0x86, 0xf6, 0xea, 0x55, 0x73, 0xa5, 0xb4, 0xdd, 0xda,
    0xc2, 0xe1, 0xc5, 0xf7, 0x1d, 0x11, 0x7a, 0x61, 0xc1, 0x41, 0x52, 0x87, 0x64, 0x1c, 0x45, 0x93,
    0xb7, 0x08, 0x55, 0x16, 0x4b, 0x16, 0xc7, 0x93, 0x93, 0xf7, 0xa1, 0xd6, 0xce, 0x95, 0x3c, 0x96,
    0xc3, 0x02, 0x28, 0xc0, 0xc0, 0x09, 0x32, 0x48, 0xa7, 0xa1, 0x69, 0xe3, 0x73, 0xf2, 0xc0, 0x04,
    0xd5, 0x21, 0x91, 0x78, 0xb7, 0xec, 0x70, 0xa9, 0x39, 0xa8, 0xd8, 0xb5, 0xf6, 0xeb, 0xf0, 0x0f,
    0xf2, 0xc0, 0xb0, 0xe4, 0x57, 0x96, 0x76, 0x22, 0x25, 0xb0, 0xe6, 0x9f, 0x98, 0x22, 0x95, 0x9f,
    0x15, 0x82, 0xa0, 0x16, 0xb5, 0x99, 0x58, 0x58, 0x77, 0x22, 0x16, 0x50, 0x0a, 0x23, 0x14, 0x3b,
    0x81, 0x65, 0x0a, 0x8a, 0x66, 0x20, 0x16, 0x53, 0xf5, 0x7f, 0x17, 0x6c, 0x83, 0xe5, 0x72, 0xf3,
    0xd4, 0x34, 0xc8, 0xc3, 0x27, 0xe0, 0xb3, 0x62, 0xd2, 0x67, 0x76, 0x11, 0xc2, 0xd5, 0x09, 0xa8,
    0x76, 0x06, 0xb3, 0x44, 0xc1, 0x9b, 0x98, 0x28, 0xfc, 0xcd, 0xaf, 0xe8, 0x78, 0x57, 0x36, 0x37,
    0xd2, 0xc9, 0xa0, 0x03, 0x73, 0x06, 0x92, 0x08, 0xf4, 0xd0, 0x72, 0x11, 0x36, 0x12, 0x3f, 0xa9,
    0x2a, 0x05, 0x53, 0xe3, 0x13, 0x67, 0x86, 0x21, 0x63, 0x44, 0x73, 0x27, 0x09, 0x19, 0xb6, 0xf3,
    0x96, 0x61, 0x70, 0x27, 0x63, 0xd0, 0xba, 0xcd, 0x35, 0xbb, 0xa5, 0x54, 0x9b, 0x59, 0x16, 0x67,
    0x90, 0x11, 0x0b, 0xa8, 0xd2, 0xc2, 0x3f, 0xda, 0x4e, 0x26, 0x61, 0xe3, 0x92, 0x94, 0xe4, 0x48,
    0xf8, 0xef, 0xe2, 0x42, 0x68, 0xf7, 0xaf, 0xe2, 0xd9, 0xd9, 0xb9, 0xd2, 0x81, 0x52, 0x11, 0x62,
    0xf4, 0x8f, 0xb0, 0x65, 0x56, 0xec, 0x53, 0x00, 0xdb, 0xc5, 0xa4, 0x74, 0xa0, 0x45, 0x62, 0x32,
    0xa0, 0x48, 0x65, 0x1a, 0x44, 0x8d, 0xb3, 0x56, 0x15, 0x54, 0xf7, 0x56, 0xd5, 0x91, 0x02, 0x9a,
    0x6a, 0xf9, 0x13, 0xc9, 0xa1, 0x08, 0x79, 0xf4, 0x90, 0xd4, 0x19, 0x15, 0x49, 0xe9, 0xb1, 0x91,
    0x13, 0x62, 0x17, 0xe7, 0x01, 0x22, 0xe9, 0x15, 0xfa, 0xd4, 0x5d, 0x16, 0x42, 0x06, 0x9c, 0x90,
    0x72, 0x03, 0xbb, 0xb0, 0xd0, 0x92, 0xe9, 0xef, 0x25, 0x17, 0x55, 0x80, 0xd0, 0xa0, 0xca, 0x82,
    0x23, 0xb9, 0xe0, 0x6f, 0x0b, 0x83, 0x13, 0xfb, 0xa0, 0x00, 0xa6, 0x87, 0x86, 0xa6, 0x3d, 0xca,
    0x86, 0xa6, 0x6b, 0x27, 0x3c, 0x33, 0xf2, 0x32, 0x90, 0x13, 0x58, 0x26, 0x01, 0x68, 0x94, 0x59,
    0xda, 0xa1, 0xa7, 0x92, 0x74, 0xf3, 0x12, 0x1a, 0x7c, 0xe5, 0x45, 0xb1, 0x73, 0xe2, 0x88, 0x64,
    0xa1, 0x10, 0x28, 0x52, 0xf5, 0xa5, 0x95, 0x36, 0xcb, 0x0e, 0x28, 0x53, 0xd6, 0xb4, 0x7c, 0x94,
    0xf4, 0xb2, 0x40, 0xc9, 0x95, 0xf8, 0x33, 0xa9, 0xaa, 0x47, 0x24, 0x15, 0xa7, 0xb4, 0x7e, 0x4d,
    0x1c, 0x63, 0x10, 0x9e, 0xd5, 0x5e, 0x70, 0x61, 0xa6, 0x59, 0xb5, 0x96, 0x1a, 0x6b, 0x76, 0xe6,
    0xa6, 0x07, 0xe3, 0x74, 0x3a, 0xe5, 0x99, 0x6c, 0x44, 0xd5, 0xaa, 0xb6, 0x05, 0x03, 0x48, 0xb8,
    0x76, 0x15, 0x39, 0x46, 0xc4, 0x9b, 0x55, 0xca, 0x21, 0x61, 0x03, 0x51, 0x15, 0x2c, 0xb1, 0x95,
    0x50, 0xae, 0x85, 0x32, 0x97, 0x65, 0x24, 0x39, 0x30, 0xb7, 0xfb, 0xc1, 0xb8, 0x1d, 0xf3, 0xff,
    0x93, 0x82, 0xed, 0x24, 0xf4, 0x31, 0xec, 0x0f, 0x49, 0x36, 0xf5, 0x35, 0xd3, 0xa6, 0xc6, 0xba,
    0x82, 0x95, 0x84, 0xa0, 0x12, 0xb5, 0xe1, 0xce, 0x0b, 0xa3, 0x92, 0x7c, 0x31, 0x08, 0xcb, 0xd3,
    0x22, 0x6c, 0x9c, 0x12, 0xd3, 0xa8, 0xa5, 0xb3, 0x82, 0x94, 0xd4, 0xc8, 0x5c, 0xa0, 0xa3, 0x78,
    0x98, 0x49, 0x7d, 0x86, 0x7c, 0x30, 0x95, 0xf2, 0xf1, 0xa2, 0x28, 0x30, 0x01, 0xa5, 0xd1, 0x6c,
    0xb7, 0xda, 0xf1, 0x75, 0xba, 0xbd, 0xbd, 0x2c, 0x31, 0x0a, 0xa7, 0x67, 0xc5, 0x98, 0x49, 0x37,
    0x3e, 0x12, 0xe2, 0x84, 0x30, 0xb8, 0x82, 0x10, 0x90, 0xc3, 0x18, 0x65, 0xe8, 0x55, 0x52, 0x31,
    0xa7, 0x19, 0x7c, 0x1b, 0xa4, 0x28, 0x60, 0xe3, 0xa2, 0xf6, 0xf8, 0x30, 0xe6, 0xc0, 0x36, 0x82,
    0xd7, 0x32, 0xf4, 0xa1, 0x34, 0x41, 0x17, 0x81, 0x04, 0x4b, 0xe7, 0x88, 0xd1, 0x96, 0xf6, 0x6e,
    0x13, 0x74, 0x30, 0x51, 0xe1, 0x89, 0x2a, 0xf2, 0x22, 0x98, 0xe8, 0x0a, 0xc3, 0x42, 0xcd, 0x84,
    0xfb, 0x86, 0x59, 0x27, 0x6b, 0x67, 0xd3, 0xa8, 0xe7, 0xa4, 0xe1, 0x61, 0x60, 0xd5, 0x55, 0x9c,
    0x53, 0x69, 0xf1, 0x4c, 0x43, 0x0d, 0x5b, 0xbb, 0x1a, 0xf9, 0x8f, 0xe4, 0x80, 0xa6, 0xe7, 0xc4,
    0x63, 0xb7, 0x11, 0x21, 0x96, 0x37, 0xe5, 0x42, 0x31, 0x95, 0x81, 0x98, 0xc7, 0xe3, 0x14, 0x23,
    0xca, 0xe5, 0xc0, 0x86, 0x70, 0xd7, 0xc9, 0x86, 0x5a, 0x22, 0x08, 0x48, 0x75, 0x36, 0xb6, 0x16,
    0xd1, 0x0a, 0x9b, 0x06, 0x9b, 0xa3, 0xc4, 0x85, 0xd0, 0x05, 0x53, 0x80, 0x0b, 0x01, 0xf2, 0x7f,
    0x50, 0xf4, 0x81, 0x24, 0x8b, 0xfe, 0xf2, 0x3a, 0x62, 0x83, 0x17, 0x47, 0xc6, 0x05, 0x57, 0xdb,
    0x45, 0x08, 0x36, 0xa9, 0x76, 0x05, 0x3a, 0xc5, 0xb4, 0x19, 0xa0, 0x14, 0xb4, 0x90, 0x3e, 0xb2,
    0x90, 0x94, 0xba, 0xb1, 0xf7, 0x55, 0x12, 0x51, 0x11, 0x14, 0xa1, 0x7e, 0x43, 0x15, 0x83, 0x04,
    0xe4, 0x46, 0xe8, 0xf3, 0x43, 0x62, 0x21, 0x73, 0x0b, 0x82, 0x6a, 0xcc, 0x03, 0x1a, 0x8b, 0x81,
    0xdb, 0xb1, 0xb7, 0x8c, 0x3a, 0x13, 0xc2, 0xa0, 0x47, 0x06, 0x09, 0x13, 0x92, 0x1e, 0x14, 0xa0,
    0xdc, 0x80, 0x36, 0x23, 0xa1, 0xda, 0xa1, 0x99, 0xc1, 0x91, 0xd8, 0x80, 0x93, 0xbb, 0x54, 0x00,
    0x96, 0x97, 0xc2, 0x6c, 0xe0, 0x51, 0x04, 0x75, 0x43, 0x65, 0xf0, 0x8f, 0xf0, 0x2b, 0x4e, 0xba,
    0x18, 0x6b, 0xd2, 0x62, 0x9e, 0xf9, 0xe4, 0xd0, 0xda, 0xc0, 0xe7, 0x2d, 0x79, 0x19, 0xa7, 0x0a,
    0x13, 0x87, 0x5e, 0x75, 0x7c, 0x66, 0xd6, 0x50, 0x63, 0xc5, 0x91, 0xb4, 0x40, 0xb5, 0xe9, 0x5f,
    0xa3, 0x54, 0x84, 0x52, 0x95, 0x73, 0xd2, 0x4a, 0x34, 0x55, 0x75, 0x16, 0xea, 0x78, 0xe1, 0xdd,
    0xe9, 0xfa, 0xf3, 0x62, 0xe9, 0x6a, 0x1a, 0x92, 0x91, 0x75, 0x51, 0xb0, 0xa1, 0xe6, 0xaf, 0x23,
    0xe3, 0x16, 0xaa, 0xc5, 0xc6, 0x5b, 0x38, 0xcb, 0xea, 0x99, 0x86, 0xd7, 0xa2, 0x45, 0x56, 0x0c,
    0xaf, 0xc7, 0xc7, 0x86, 0x60, 0xc3, 0xd4, 0x11, 0xf8, 0xd5, 0xa4, 0xc0, 0xfb, 0x66, 0x94, 0xd5,
    0x8d, 0xd6, 0x27, 0xe3, 0x77, 0x97, 0xf6, 0x63, 0x7c, 0x94, 0xd4, 0x04, 0x56, 0x0a, 0x84, 0x30,
    0xea, 0x4b, 0xef, 0x9a, 0x86, 0xb0, 0x10, 0x1b, 0xd0, 0x76, 0x52, 0x1a, 0xa0, 0x0a, 0x73, 0x7b,
    0x77, 0x43, 0xb1, 0x86, 0xe4, 0x2a, 0xb6, 0xe0, 0x38, 0x6a, 0x34, 0x21, 0x36, 0x30, 0x34, 0x74,
    0x5a, 0x09, 0x98, 0x4b, 0x0f, 0xf9, 0x11, 0x10, 0x1d, 0xe3, 0x27, 0xd6, 0xc0, 0xf2, 0x33, 0xb5,
    0xe9, 0x42, 0xd2, 0xb6, 0x1b, 0x73, 0x04, 0x4c, 0x79, 0x78, 0xa2, 0xe1, 0x71, 0xc5, 0xe9, 0x81,
    0x30, 0xf1, 0x04, 0x88, 0x92, 0x62, 0x82, 0x7b, 0xe0, 0x12, 0x76, 0x03, 0x79, 0x40, 0x06, 0x32,
    0x84, 0x58, 0x41, 0xf6, 0xe5, 0x94, 0x79, 0x89, 0x12, 0x3c, 0xd3, 0xc0, 0xf3, 0x45, 0x51, 0x93,
    0xe9, 0x05, 0xa9, 0x84, 0x60, 0xc2, 0x50, 0x42, 0xb9, 0x57, 0x30, 0xa0, 0xa1, 0x26, 0x26, 0x80,
    0x30, 0xc3, 0xe1, 0xbf, 0x96, 0x89, 0xee, 0xdf, 0xa3, 0xe2, 0x81, 0x41, 0xd1, 0x06, 0x03, 0xc3,
    0xe3, 0x77, 0xbb, 0x36, 0xf6, 0x08, 0x93, 0xa8, 0x7f, 0xb6, 0xb1, 0x06, 0xc4, 0xb0, 0xd9, 0x42,
    0x13, 0xd0, 0xfb, 0x19, 0x63, 0x85, 0xc9, 0x5b, 0x40, 0x76, 0x08, 0x74, 0x70, 0xb9, 0x20, 0xa2,
    0x41, 0x4a, 0x94, 0xac, 0xe2, 0x0a, 0x02, 0x41, 0x57, 0x55, 0xd0, 0xe0, 0x62, 0x55, 0xd4, 0x40,
    0x35, 0xf5, 0xe1, 0x71, 0x36, 0xef, 0x88, 0x86, 0xc1, 0x57, 0x91, 0x24, 0x4c, 0x71, 0x71, 0x3c,
    0x68, 0xb9, 0x45, 0x21, 0x8a, 0x72, 0x81, 0x4b, 0x33, 0x52, 0x93, 0xad, 0x8b, 0xaa, 0x96, 0x17,
    0xd6, 0x83, 0x14, 0x5a, 0x52, 0x12, 0x37, 0x65, 0x45, 0x63, 0xf8, 0xc9, 0xc3, 0x56, 0x10, 0x7e,
    0x8a, 0x37, 0xc2, 0xc2, 0x81, 0xfd, 0x81, 0x61, 0x0d, 0xa1, 0xb6, 0x96, 0x85, 0xa8, 0xf6, 0xa1,
    0xf4, 0x51, 0x57, 0xc7, 0xb2, 0x62, 0xa7, 0x5e, 0x18, 0x38, 0xbd, 0x44, 0x7a, 0x0a, 0xa5, 0x40,
    0xb1, 0xac, 0x20, 0x66, 0x2c, 0x60, 0xe0, 0xab, 0xa6, 0x36, 0xe9, 0x92, 0xba, 0xd7, 0x41, 0x25,
    0x16, 0xb0, 0x88, 0xd1, 0xd1, 0xf0, 0x15, 0x52, 0x5a, 0x25, 0xa3, 0x4c, 0x42, 0x81, 0x74, 0x67,
    0x94, 0xf9, 0x27, 0xb4, 0x48, 0xf9, 0x4b, 0x92, 0xc0, 0x41, 0x85, 0xb6, 0x7b, 0x04, 0x71, 0x67,
    0x73, 0xf3, 0xe4, 0x11, 0x13, 0x65, 0x43, 0xca, 0x55, 0x52, 0x10, 0x60, 0x27, 0x27, 0xe2, 0x42,
    0x33, 0x12, 0x03, 0xe9, 0x39, 0xe5, 0x02, 0x61, 0x7d, 0x06, 0x95, 0xf3, 0x4a, 0x36, 0x27, 0x18,
    0xfb, 0x73, 0x98, 0x41, 0xe4, 0xf2, 0xe5, 0x93, 0xc5, 0x92, 0x08, 0x65, 0xe1, 0x14, 0x14, 0xd6,
    0x9d, 0xb2, 0x33, 0x80, 0x75, 0xf9, 0x50, 0xd6, 0x7b, 0x23, 0xb8, 0x79, 0xd6, 0x78, 0xb6, 0xc5,
    0xe0, 0x52, 0x34, 0x9d, 0x27, 0xa9, 0x52, 0xcb, 0x87, 0x69, 0xf1, 0x32, 0x20, 0x84, 0xb6, 0xe3,
    0x14, 0x11, 0x10, 0x83, 0x6c, 0x2d, 0xf9, 0x08, 0xe2, 0xeb, 0x15, 0x72, 0xad, 0xf8, 0xff, 0x9d,
    0x06, 0xe4, 0x31, 0x41, 0x44, 0xe8, 0x14, 0x39, 0x62, 0x40, 0x30, 0x4a, 0x15, 0x33, 0xb6, 0xe2,
    0x1f, 0x54, 0x88, 0x84, 0x34, 0x94, 0xb1, 0x17, 0x08, 0xe2, 0xf3, 0x10, 0x36, 0x61, 0x55, 0x51,
    0xca, 0x61, 0x30, 0x1c, 0x42, 0x34, 0xa3, 0xf1, 0xb6, 0xc0, 0xf7, 0xa9, 0x55, 0x20, 0x49, 0xec,
    0xa7, 0x5b, 0x49, 0x61, 0x2c, 0x96, 0x74, 0xe9, 0x38, 0x63, 0xb2, 0xd9, 0xc2, 0xf9, 0x17, 0x20,
    0x91, 0xc2, 0xe3, 0x70, 0x43, 0x5b, 0x76, 0x6e, 0xe1, 0xa3, 0x13, 0x52, 0x0a, 0x5e, 0x62, 0x8b,
    0xa3, 0xc0, 0xc5, 0x58, 0x11, 0xd8, 0x92, 0x7b, 0x2b, 0x2c, 0x5a, 0x60, 0x48, 0x90, 0x66, 0xf7,
    0x71, 0x55, 0x05, 0x81, 0x72, 0xd5, 0x34, 0xa9, 0xd6, 0xfc, 0xf1, 0x31, 0x92, 0x83, 0x06, 0x8d,
    0x85, 0xbb, 0x65, 0x50, 0x70, 0xe9, 0xd1, 0xb9, 0xb6, 0x93, 0x07, 0xd8, 0xb0, 0x6b, 0x52, 0xfc,
    0x27, 0x40, 0x4a, 0xb7, 0xfb, 0x89, 0xf2, 0x86, 0xf6, 0xa6, 0xbb, 0xf3, 0xaf, 0xad, 0x83, 0x60,
    0xe3, 0xa2, 0xf5, 0x9a, 0x7b, 0xe0, 0xd2, 0x18, 0x46, 0x5a, 0xb3, 0x92, 0x05, 0x46, 0x42, 0xb1,
    0x53, 0x91, 0x50, 0x2e, 0xba, 0x82, 0xd0, 0xf2, 0x5f, 0x95, 0x63, 0x70, 0xf6, 0x47, 0x69, 0x8d,
    0x16, 0x97, 0x14, 0x3a, 0xb9, 0x02, 0xd2, 0x71, 0xd0, 0xfb, 0x88, 0x35, 0xbb, 0x77, 0x17, 0x17,
    0x96, 0x11, 0x0a, 0x92, 0x91, 0xd1, 0x00, 0x16, 0x1b, 0x3c, 0x11, 0x57, 0x04, 0xe4, 0x94, 0x39,
    0x41, 0x89, 0x01, 0xf6, 0xde, 0x62, 0xbf, 0xa7, 0x37, 0x53, 0xc5, 0xbd, 0x20, 0xbc, 0x19, 0xcd,
    0xfb, 0x22, 0xf0, 0x7b, 0x10, 0x1b, 0x51, 0x98, 0xe0, 0x05, 0xf5, 0x1f, 0x26, 0x06, 0x6c, 0x85,
    0xa4, 0x11, 0x4e, 0x47, 0xd9, 0xf1, 0xff, 0x9c, 0x6a, 0xea, 0xd3, 0x4b, 0xa1, 0xc2, 0x88, 0x85,
    0x9d, 0x76, 0xce, 0x28, 0xe9, 0x38, 0xf0, 0xaf, 0x5c, 0xd1, 0x26, 0x61, 0xe5, 0xf0, 0x50, 0x03,
    0x3d, 0x66, 0xe2, 0xf0, 0xe6, 0x75, 0xe6, 0x25, 0xf0, 0x72, 0xb0, 0x83, 0x61, 0xa5, 0x08, 0x89,
    0xa5, 0xc5, 0xa5, 0xdd, 0x58, 0x42, 0x72, 0xd0, 0x03, 0x99, 0xf2, 0x5a, 0xf2, 0x66, 0x75, 0xb4,
    0xe3, 0x08, 0x79, 0x69, 0x3f, 0x5b, 0xd2, 0xc2, 0x43, 0xd4, 0xdb, 0x9b, 0x62, 0xa4, 0xdb, 0xc3,
    0xb7, 0x45, 0xb1, 0x98, 0x66, 0x50, 0x66, 0x3f, 0xba, 0xb1, 0x0a, 0x27, 0x43, 0x77, 0x82, 0x46,
    0xbc, 0xaa, 0xf4, 0x52, 0x23, 0xac, 0x9e, 0x88, 0xa9, 0x71, 0x18, 0x1e, 0xa7, 0xf5, 0xe7, 0x45,
    0xc0, 0x83, 0xd2, 0x52, 0xfd, 0xa6, 0xc6, 0xd3, 0x20, 0x38, 0x43, 0x62, 0x87, 0xf4, 0xe0, 0xfc,
    0xfa, 0x5f, 0xe9, 0xa9, 0xc8, 0x03, 0xd3, 0xb7, 0xa1, 0x4c, 0x72, 0x43, 0xe7, 0xef, 0x55, 0xc5,
    0xc3, 0xc1, 0x16, 0x25, 0x21, 0x31, 0x42, 0x65, 0x40, 0xed, 0xb3, 0x15, 0xfb, 0x63, 0x5b, 0x7e,
    0xb1, 0x26, 0x92, 0x77, 0xde, 0x73, 0x54, 0x8c, 0xc0, 0x31, 0x64, 0x38, 0x9e, 0x25, 0xc2, 0xc3,
    0xea, 0xaf, 0x3b, 0x59, 0x39, 0x24, 0x80, 0x77, 0x47, 0x65, 0xf9, 0xea, 0x28, 0x41, 0xe1, 0x76,
    0xf2, 0xfc, 0xca, 0xe6, 0x69, 0x46, 0x1c, 0x64, 0x60, 0xc8, 0x9e, 0x0c, 0x42, 0x38, 0x88, 0x87,
    0x09, 0xa9, 0x34, 0xd5, 0xb5, 0x72, 0x06, 0x03, 0x08, 0x47, 0x37, 0x71, 0xd1, 0xb1, 0x0a, 0xd5,
    0x15, 0x5b, 0xa2, 0xf9, 0xbc, 0xe1, 0xaf, 0xa0, 0x12, 0x37, 0xa4, 0xe5, 0x71, 0xa3, 0x38, 0x16,
    0x1a, 0xca, 0x47, 0xab, 0x80, 0x3c, 0x3a, 0x47, 0x29, 0x11, 0x40, 0xa5, 0xb2, 0xf4, 0x9f, 0xb8,
    0xc7, 0x20, 0xbc, 0xfe, 0x13, 0x72, 0xd3, 0x47, 0xfe, 0xe7, 0xa1, 0x28, 0xa7, 0x67, 0x31, 0x4e,
    0xf4, 0xb9, 0xf8, 0x07, 0x95, 0xc8, 0x69, 0x4e, 0x2f, 0x88, 0xd4, 0x6a, 0xda, 0x47, 0x67, 0xa8,
    0x68, 0x72, 0xea, 0x2b, 0xb8, 0x53, 0xe8, 0x86, 0x74, 0xb0, 0x46, 0x64, 0x49, 0x51, 0x67, 0xb2,
    0xe9, 0x22, 0x46, 0xd6, 0xe5, 0x56, 0x83, 0x64, 0xb3, 0x19, 0x82, 0x91, 0x29, 0x64, 0xc4, 0x40,
    0xa3, 0xb4, 0x88, 0x4a, 0xc1, 0xcb, 0x24, 0x21, 0x72, 0xea, 0x85, 0x83, 0x73, 0xe4, 0x01, 0xdf,
    0xf7, 0xb6, 0x68, 0x2e, 0x92, 0x73, 0xd1, 0xa1, 0x08, 0xe4, 0x94, 0x66, 0x98, 0x96, 0xa5, 0x54,
    0x93, 0xe7, 0xb7, 0x60, 0x26, 0xec, 0x95, 0x42, 0x93, 0x33, 0x4a, 0x91, 0xc2, 0xfa, 0x40, 0x38,
    0x59, 0x11, 0x97, 0x63, 0xa3, 0x92, 0x51, 0xda, 0x56, 0x56, 0x21, 0x38, 0x18, 0x13, 0x30, 0xfb,
    0xc7, 0x24, 0xc9, 0x42, 0x91, 0x71, 0x55, 0x46, 0x18, 0xd0, 0x12, 0xf7, 0xe3, 0x3f, 0x2d, 0xd5,
    0x61, 0x2a, 0x15, 0xb9, 0x7f, 0xc3, 0x81, 0x3f, 0x94, 0x3b, 0x23, 0x29, 0x87, 0x61, 0xe7, 0xcf,
    0xd0, 0x37, 0x17, 0xba, 0xd3, 0x63, 0xbb, 0x06, 0xc7, 0x97, 0x03, 0x14, 0xd0, 0x83, 0x17, 0x62,
    0xe3, 0x55, 0x64, 0x17, 0x61, 0x13, 0x61, 0xf8, 0xdb, 0x99, 0xca, 0xf0, 0x5f, 0x08, 0x9b, 0x8a,
    0x25, 0x07, 0x39, 0x6c, 0x82, 0xd2, 0xb4, 0x43, 0xa7, 0xa1, 0x64, 0x96, 0x32, 0xc3, 0xf6, 0x09,
    0x48, 0x5e, 0xa2, 0xb5, 0xe9, 0xb2, 0xeb, 0x9a, 0xfe, 0xef, 0x74, 0x8a, 0x8a, 0xb5, 0x05, 0x92,
    0x39, 0xa1, 0x00, 0xa8, 0xfc, 0xff, 0xff, 0xff, 0xff, 0xff, 0xff, 0xff, 0xff, 0xff, 0xff, 0xff,
    0xa2, 0x05, 0x00, 0x00, 0x00, 0x24, 0xdc, 0x39, 0x4c, 0x28, 0x0c, 0xfa, 0xff, 0xff, 0xff, 0x37,
    0xae, 0xb3, 0x4f, 0x28, 0xf3, 0x00, 0x00, 0x00, 0x00, 0x00, 0x6d, 0x0d, 0x44, 0x28, 0xc1, 0x01,
    0x00, 0x00, 0x00, 0x72, 0x5d, 0xf4, 0x49, 0x28, 0x7f, 0xfe, 0xff, 0xff, 0xff, 0xcc, 0x0f, 0x7b,
    0x56, 0x28, 0x00, 0x00, 0x00, 0x00, 0x00, 0x00, 0x00, 0x00, 0x00, 0x00, 0x00, 0x00, 0x00, 0x00,
    0xf8, 0x04, 0xdc, 0x02, 0x0c, 0x00, 0x60, 0xbd, 0x0f, 0x51, 0x6a, 0x94, 0x85, 0xfa, 0x00, 0x30,
    0xf3, 0x83, 0xce, 0xa0, 0xdf, 0x39, 0xda, 0x09, 0x00, 0x02, 0x90, 0x15, 0xc1, 0x8b, 0x9d, 0x6f,
    0xc1, 0xbd, 0x99, 0xfa, 0xfa, 0xbd, 0x50, 0x86, 0x70, 0xf0, 0x6f, 0xe5, 0x8d, 0xd9, 0xf0, 0x41,
    0x65, 0x78, 0xf6, 0xff, 0x59, 0xb0, 0xc6, 0x4a, 0x45, 0xc8, 0x5e, 0x2c, 0x0f, 0x00, 0x00, 0x01,
    0xc2, 0x4b, 0x1c, 0x97, 0xcd, 0xeb, 0x19, 0x00, 0xc0, 0x37, 0x3b, 0xb0, 0x89, 0x6c, 0xca, 0xa9,
    0x0f, 0xf0, 0x9c, 0x00, 0x6a, 0xa7, 0xac, 0x64, 0x01, 0xa7, 0xff, 0xdf, 0xb9, 0x06, 0xa4, 0x62,
    0x35, 0x96, 0x71, 0xf5, 0x0f, 0x21, 0xe4, 0x7a, 0x75, 0x4c, 0x8a, 0x80, 0x43, 0x00, 0x00, 0x00,
    0x44, 0x62, 0xdc, 0x2b, 0x96, 0x09, 0x7c, 0x9b, 0xa2, 0xe4, 0x4d, 0x7f, 0x55, 0x9d, 0x33, 0xe2,
    0x00, 0x30, 0x71, 0xc8, 0x68, 0xed, 0xf3, 0xb9, 0x19, 0xf7, 0xff, 0x94, 0x43, 0x4d, 0xfa, 0x51,
    0x46, 0x37, 0x07, 0xff, 0x7f, 0xfa, 0x8a, 0x4a, 0xe1, 0x26, 0x64, 0xd0, 0x03, 0x00, 0x00, 0x20,
    0x0b, 0x5a, 0xc6, 0x30, 0x23, 0x29, 0xaa, 0x0c, 0x00, 0x27, 0xca, 0xce, 0x2c, 0xc8, 0x5a, 0xaf,
